/**
  ******************************************************************************
  * @file    network_data_params.c
  * @author  AST Embedded Analytics Research Platform
  * @date    2026-01-23T10:53:54-0300
  * @brief   AI Tool Automatic Code Generator for Embedded NN computing
  ******************************************************************************
  * Copyright (c) 2026 STMicroelectronics.
  * All rights reserved.
  *
  * This software is licensed under terms that can be found in the LICENSE file
  * in the root directory of this software component.
  * If no LICENSE file comes with this software, it is provided AS-IS.
  ******************************************************************************
  */

#include "network_data_params.h"


/**  Activations Section  ****************************************************/
ai_handle g_network_activations_table[1 + 2] = {
  AI_HANDLE_PTR(AI_MAGIC_MARKER),
  AI_HANDLE_PTR(NULL),
  AI_HANDLE_PTR(AI_MAGIC_MARKER),
};




/**  Weights Section  ********************************************************/
AI_ALIGNED(32)
const ai_u64 s_network_weights_array_u64[61592] = {
  0x7f0000007fU, 0x0U, 0x0U, 0x0U,
  0xe8fb1dfb2e000000U, 0xeafefa02bc87810eU, 0xfd10fc04e001fa02U, 0xfa1e0ced27fd06fbU,
  0xa08d92901724dfaU, 0xfafb15e47f47ff0cU, 0xca22ebd54b14be32U, 0x1165f210421070fU,
  0x1b7f44062415fc06U, 0x1b1b05040604eef4U, 0x12f84c2a04fd0009U, 0x356031fd09f0f656U,
  0x4f38f0351f217f23U, 0x81215e70d7a2e23U, 0xe51cfb9901fd8902U, 0xdff8ed40081d605U,
  0x2f6ff03ef09fee9U, 0x28a93022c119f60eU, 0x81403ea02509ec0aU, 0xf0ede1511e40848U,
  0x411e10008f41ad4U, 0xf8f30217e801d994U, 0xe905fbfaf9a38101U, 0xfd19ea000bf3f71eU,
  0x776a437d69497f6eU, 0x683a706243786e40U, 0x3c72624172683971U, 0xfaf308fcea3a6f66U,
  0x4af7705ff7040400U, 0x11e9e81b15fa117fU, 0xade7ed040b01e304U, 0xc5fef3f7145f22eeU,
  0xe6ef0f7f4ff299U, 0xfff8f5172402ede1U, 0xd0adc0e05ecf807U, 0xe1c7e3f3dcd8d2a3U,
  0x7f76b8defdd0cbf6U, 0xd711df42U, 0x0U, 0x0U,
  0xcd00000000000000U, 0xfaeef7e791c3ef9fU, 0x1007197f3a0f723dU, 0xfeed0103edf80bU,
  0xcde54edaf92dfc04U, 0xd77fb6ef59ebf61fU, 0x49d2f637daed3aa7U, 0xedf919cbeaU,
  0x0U, 0x0U, 0x0U, 0xffffb490c0000000U,
  0x18004ffff3ed0U, 0xfffefce50006dfa1U, 0xffff45b10001aa70U, 0x1674c00036718U,
  0x7b3d70000bf20U, 0x153f4c0000000U, 0xc000000000017a56U, 0xb450bd2782ae1394U,
  0xb73605811df8fda6U, 0x817f817f7f811933U, 0xe77f059733817fabU, 0x4da143b8fe5be818U,
  0xe39a013df004e5a1U, 0xee30fd40dea7f81U, 0xf2e208cf930300e4U, 0xe408e6f9f1c7d7b2U,
  0x17018198f415a794U, 0x21e622030241010eU, 0x2bfc0ceb01fe0681U, 0x34d927fa0245b88dU,
  0x17e50228040000b4U, 0x15de28e5fe1ffc17U, 0x91e300c65400f383U, 0x16090e040013f915U,
  0x8111036b81ff048dU, 0x59fcffffff5fU, 0x359200005ab9U, 0x4f3400002edfU,
  0x475d00003461U, 0x1d9dfffff266U, 0x3919000075a4U, 0x688dfffffe43U,
  0xffffff9500002b22U, 0x1ff007eff02ea00U, 0xfe7b00fca48100U, 0x7170e495500e300U,
  0xf41d00d57ffb00U, 0x20a04c6f4ff0100U, 0xf87f0001ef0300U, 0x1146185181ecf500U,
  0x13ff0027ff3d00U, 0xa7f1fc923e63200U, 0x10fa00f711c300U, 0x10f4e9e900f5f000U,
  0x7ffb00d4fb0900U, 0xf8e8ea3201fd1200U, 0x3d7f003d729600U, 0x911fd077ff00e00U,
  0x31f8004ccc4400U, 0xffff57defffffb75U, 0xffffce7dffffe19aU, 0xfffff7f6ffff8239U,
  0xffff95cdffff9eccU, 0x17ceef1cd4328110U, 0x7fb1f40ba1ea4247U, 0x5d307f357ed2061fU,
  0xef7f9a27fae4951U, 0x81d31f060a4a9addU, 0x7f28e1032ade0614U, 0xdc320e6ea781ee39U,
  0xc456fa1de915117fU, 0x81f41802680d9e15U, 0x58870df3fe0e8169U, 0x359a05f5138bdc81U,
  0xf02fde8197f8d5ebU, 0x7f3ae9b543d90710U, 0x0U, 0x292e7f2a0bfadffaU,
  0x4ac827428111022aU, 0x0U, 0x1e1df7e5167f180fU, 0x38a14fb21198159U,
  0x469dc6c74b1cf381U, 0x3dfb81ea71d62022U, 0xb43f6f2097f1638U, 0x49c0a050381efb2U,
  0xb37ff508ebee7f9bU, 0x7f62c4f755cdca06U, 0xccb47c7f1f232d0cU, 0xa40e07fd81e2acU,
  0x31427fd607e1e601U, 0x3c337f1728ecee02U, 0xfa56f1ee027f1d59U, 0xcf64fb0ae5e87fb0U,
  0x6e7fb82003eca0d5U, 0x7f5b65f279cd0605U, 0x7ff7f60b95f63f02U, 0x7f11f51e9cfb58e7U,
  0xd6671f14d7f1087fU, 0x508d0ddb3e1af981U, 0x34317f1e1af5e9faU, 0x22ecf97f5306150cU,
  0x7ed5001c81271c07U, 0xf85df7f4017f1c5eU, 0x684a7f3655e1e300U, 0x3ce50edc157ffbb4U,
  0x810f05ef6109ccf4U, 0x92f7e64681b8fc22U, 0xc74a010acd007fa8U, 0x24ae20e21422ea81U,
  0xf07feb1dff7d1470U, 0x72000011eeU, 0x19f20000283eU, 0x1a2900001e39U,
  0xffffffd300002b59U, 0xfffffebb00000033U, 0x1cd00000a46U, 0xfaecc2400000314fU,
  0x516a00000b44U, 0xffffff8afbe72f60U, 0x34f0fffffe0aU, 0xffffffec00000f7dU,
  0x1ae00000000U, 0xfffffc8a00000e17U, 0x26100000049U, 0x78100001031U,
  0x37ae000009a5U, 0x16d00000fb8U, 0xfffff6ed0000014aU, 0xe3c000001b0U,
  0x36deffffff6fU, 0x317f0000099cU, 0xffffff9ffffffe9bU, 0xb800003849U,
  0x140100002acfU, 0xbcb1d907eff9ead5U, 0xd572b9224108cee5U, 0xb191b9fffa25ac8fU,
  0x1a5f0f47ecc183ddU, 0x4e81301236f9a781U, 0x6ba9ddfd9469f2b4U, 0xaf818139e4e40c4bU,
  0x3effae256c8cb43dU, 0xba81900a073b8fccU, 0x36c715cad88881fcU, 0x7fa4480d5441811cU,
  0x5e81e902817d0681U, 0xefc694c0fb062be0U, 0xf59bb9082681f857U, 0xe9dcb4f00c1be781U,
  0x9e812f6f4c6e3f5U, 0x10fc240e2046aa6bU, 0xfc905efb10703b1U, 0x976336f6d5d481abU,
  0xa01bc05a70eb94e5U, 0x8199a829b359a287U, 0x547fc47fdab28a2aU, 0x5995b3dd54f1acd5U,
  0x78528ba594683b2aU, 0x815d297f8181ad7fU, 0x7ffaf27f7f918165U, 0x8988817f817f81c4U,
  0x7fb9818881819d7fU, 0x5aa081bc7f7f911cU, 0x7f7d81908b7f7f3dU, 0xdb1fe989abc31fcbU,
  0xd5e7ba3823b3ec7fU, 0xe9daaf38b936e2dbU, 0x14dda70fc4d3fb30U, 0xf102c2dc17759e1eU,
  0x2441dbc7b60a3525U, 0xdefb2200dede95c3U, 0xc181814d3bf0c5daU, 0xc4f3df344b40edd5U,
  0x3e4d1d4cc5f5ca21U, 0x1eee23a1f7dae66cU, 0x1f04b360c80f2509U, 0xd1071251aba8b657U,
  0x5d10e65338e0b930U, 0xc7eecb51754de1e8U, 0x6fd327ce9deebd5eU, 0xfff132810643cfeeU,
  0x28f49c7fbe0f200aU, 0xf516edb1dcd71de4U, 0xe36fd51f20f3fc3bU, 0xfeffe44a3b1efba3U,
  0x27ec1cf3c1fc022bU, 0xd91b15ec0341d5a6U, 0x12fcde3ff1fa2307U, 0xd8d00000dceaU,
  0xa6d10000f046U, 0x3607ffffffdaU, 0x764c00000a47U, 0x7a0b000062acU,
  0x19c100007558U, 0xffffff81ffff4a4aU, 0x1fd00009675U, 0x83ddffffff34U,
  0x7c9000002beU, 0x1998ffffc36cU, 0x92000000b0d5U, 0x791dffffaec8U,
  0x52dc0000a616U, 0x3dbafffff6c1U, 0xffff3b32ffffe47cU, 0x19f5800002d4cU,
  0x46a00006b0cU, 0xffffff7c0000d7d9U, 0xffff949500020df2U, 0xffff92980000376aU,
  0x17f12000005acU, 0x14653fffff993U, 0xffffa80600000544U, 0x6061a0aa309fff4U,
  0x6010061fb020603U, 0x500fc4d00faf800U, 0x810304050c0d241dU, 0x21f001e400ff060aU,
  0x204fe0205f8e608U, 0x4ce31a2cfafdf8dcU, 0x2512000ceae10614U, 0x147f1500d1122800U,
  0xf511fd150436fee4U, 0x40aca06ebf8f80eU, 0x9fd007e0f8b1f8f9U, 0x191df52d0bff0fc5U,
  0x35060003fa0837f7U, 0xf0060d0018810c00U, 0x3171e09052502e0U, 0x4050bf3f5f907U,
  0xe19c71800e2f925U, 0xfd001cfb08ff0001U, 0xf8e2001afefd1241U, 0xee0600fd01f70000U,
  0xf7fffdf8fef7faf4U, 0x81030006fec92ccfU, 0x6fffffecd010400U, 0xfdfeec032250fd00U,
  0x4f500b0f8fefc03U, 0xfc01044200060900U, 0x6200fff92efb1ff1U, 0xeef5f410feff0404U,
  0x100fdff030381fdU, 0xc1a2e03f8042cf9U, 0xff81001936071decU, 0x28f20af615da0d00U,
  0xee1717f4fc1bfeebU, 0x10d11204fbda1c32U, 0x17163b151bf6f319U, 0x9ebd2260702caeaU,
  0x288100fc57f4e71aU, 0xde1a02fbed31f800U, 0xfcf4f32ff5fdff1fU, 0xeabbf7fdff1be15cU,
  0xe6edadebe6fcf1f2U, 0x1c40137f08f4e88fU, 0x685700e4de1a060eU, 0x2de3fff43d020d00U,
  0xf8383e32062e0611U, 0x231b1705e8ecf0f5U, 0x4d3f033bf5e40349U, 0xffff9c94ffffecfdU,
  0x56ac00005f25U, 0x43300000c2eU, 0x21fa00009286U, 0xe8d01a7ff8ff1d4dU,
  0xf06fa097f02fefaU, 0xc4ebefa28ed811cU, 0x61ddef610f8e17fU, 0xa30cd1f6f47fd109U,
  0xfff60e7ffd020244U, 0xcab8321a7ff35df1U, 0xfe0ff30002fd7ffaU, 0xdbffe9ce06fc327fU,
  0x2f80a3514060e81U, 0xfdf11c277f0df8b9U, 0xd3ea0722c00c0181U, 0xd304f4d21002197fU,
  0x4ab86505f8814df5U, 0xe7fa0a157ff3e6cfU, 0xce0af100fd027ffdU, 0xe47590f704ec81f5U,
  0xedaa4d06f4017f14U, 0x3fe03608ff812cf8U, 0x19160381010212b6U, 0x12ae24b01ffe981U,
  0x612fc8102fefdc0U, 0x3224f055fd00e781U, 0xa68152fef8f9e8ecU, 0x4ced2f09038128f8U,
  0xcf0af4b57fffdb63U, 0xe37f79f701fdec03U, 0xed231c7f0dfef846U, 0x7be2510605bb7f00U,
  0xab8158fef8fb0cf8U, 0xf3fd00fa8101fb03U, 0xd0881020304beU, 0x94a824fd810b23f7U,
  0x2b2a8101fff9c0U, 0xa0ae8281b094a81U, 0xe249a102faf57fedU, 0xe38164fee5072ffcU,
  0xf079811717f7c11fU, 0x41cb390b0106810aU, 0xa0cff5fdfaf38103U, 0x9b8150ccf7042f73U,
  0x7fc750fbff13830aU, 0xdf00ffce81fdf833U, 0xf9f10a39810ce6a9U, 0xf37f62e30efce5fbU,
  0xed160a11fffddb81U, 0x170d0dfc027f4e0fU, 0xfd0402087f0805fdU, 0x20910000f50dU,
  0x22a800001ceaU, 0x2ba200000740U, 0xfffffeddfffff6e6U, 0xa4b0000040bU,
  0x15500000e9fU, 0xfffffc1000000817U, 0xfffff6f90000036bU, 0x35a800001810U,
  0x7383fffffed1U, 0xc1700001353U, 0xfffffd9f0000260dU, 0x16dc00001013U,
  0x2a3c000072deU, 0xfffff422ffffff9dU, 0x9650000008fU, 0x282dfffff674U,
  0x1dc900000d34U, 0x1457000021b2U, 0x84000005d01U, 0xb6dfffffbc7U,
  0x105d000004fbU, 0xa0f00001377U, 0xba6fffff99aU, 0x1cff51046d14fd04U,
  0x8d3f7f80709080fU, 0xf67feafa8ee908feU, 0x620f05fb08fb06fdU, 0x1fe2201e4261c14U,
  0xf6f90311f7f8bc11U, 0xb0b571c810f0a7fU, 0x805e8ce2b077f7cU, 0xf93199bc8c4c87fU,
  0x84091517ace14711U, 0x73fad1d80a7fc305U, 0x1781f8dd03e39eb1U, 0x120441ff0f08fde0U,
  0x410fdf21ff2081bU, 0xfaeef4e14dfd1d99U, 0xea0405f01dfdc5fcU, 0xf3292f00ed10e808U,
  0xfafe03d50bf12632U, 0xf023e50e9e01077eU, 0xdf12fff935f30909U, 0xee84b70aaac4ce00U,
  0x940c21f881f16305U, 0x28d73bfd7ffecb11U, 0xfbf3f2d3a82781c2U, 0x818181817281811aU,
  0x81237f7f817fa081U, 0x7f707f7f967f7fadU, 0x7f5d81811c81817fU, 0x7f7f817fd7e37f81U,
  0x6a66877f7f7fb07fU, 0x132cc305f3310536U, 0x47fd800f8970ee8U, 0xdf0bd30e55b9be3fU,
  0x301281444da0601U, 0xf64440fb4209d421U, 0x6f5f01be1ac09afU, 0x16db2307ef19f9cbU,
  0x12dafa06210ce808U, 0xf4f0e00669f21605U, 0xe02e03f6330016fdU, 0xe9081fffd8e0d4eeU,
  0x11f512dcdb2afc09U, 0x237cec10154b7e44U, 0x19a6fffb1a2bfd12U, 0x130c31db7adcc8c6U,
  0x157f014d1dd8c120U, 0x76f3efe7dc07e655U, 0x8107e0142dd8f4e5U, 0x8c3fb05fd07fcd6U,
  0xbf7f714d8d8f6eeU, 0xf705f61781f71821U, 0x80608f1c9f60af9U, 0xc31924fbe9db57ecU,
  0xfcfb7fd507db0804U, 0xffffff91ffff3396U, 0x4b000020bdU, 0xffffea810000169eU,
  0x6115000007ccU, 0x92840000063bU, 0x6c71fffff73fU, 0xfffffca0ffffe5bcU,
  0x218000006c0aU, 0x4465000001eaU, 0x2d16000088d2U, 0xfffffeacffffffccU,
  0x395c00000125U, 0x72f7ffffdfc5U, 0x8afc0000b317U, 0x45600000e16U,
  0x506fffffaa7U, 0x44ee000004cfU, 0x4445ffffe4c3U, 0x3e9effffd42aU,
  0x1e623ffffa841U, 0x494e00006481U, 0xfffff94f000030b9U, 0xccb00003c8dU,
  0x7a000005c5U, 0x200e70610dcf4cbU, 0xed48077573d97f8cU, 0xddeafaf80407dff9U,
  0xda130af4410aa117U, 0xeefafafd146cb2fdU, 0xeeef19e1e82ffc74U, 0xad01e8fb057f21ffU,
  0x8afa07ec0616ff1dU, 0xde1820e60509c90aU, 0xff0dfb0c010ef8eeU, 0xc741dff40c100cfbU,
  0xff1908f11af5240bU, 0xe3fa1b21d511cf05U, 0xff063af60efeff06U, 0xf6da16f1dee77fdaU,
  0xd702f7e3f900027aU, 0x7f2fef60a01f2f8U, 0xd8e71a0200edec10U, 0xfef6fa0308fea901U,
  0x231f70d1511f4f9U, 0x3e914fa1703ebf7U, 0x17f05f907013406U, 0xcf9f2ebfffd070cU,
  0x22ff01f91bf706f7U, 0x701da000200079eU, 0xf7f401e0ee14db28U, 0x30ee40919010702U,
  0xe1f901026d062dfaU, 0x102fa030be18100U, 0x60603c711f5fbceU, 0x2ffd0bd107161ae8U,
  0x2307d3fb070e0415U, 0x2707d7290214aefeU, 0xff14ded8d6b1060aU, 0xdd50f41c0ffbefcU,
  0xfdd6f57f0603d319U, 0xe600e425f9f0e7e4U, 0xc6ff28f5ec20faf7U, 0xb2fa30dde70001feU,
  0x2f02d18bfcaf602U, 0xc809cdbd40efc504U, 0xd29e17f28110bf3U, 0x38040dea19b7200cU,
  0xfcf8e109e03dfdf9U, 0xc80f2639d72681eeU, 0x4f31dec0315eb12U, 0xbfd7cbf6e9fd2302U,
  0xfcece23c27e5f1U, 0x638bffff6088U, 0xffffce82ffffcf0eU, 0xffffed5200004ca6U,
  0xa982000080e9U, 0xe21929dc4afe0081U, 0x7f68d610152f491dU, 0x30cf381ff02ffd8U,
  0xee23118185f3fd64U, 0x152df347f6f02d81U, 0x55090881f715e59aU, 0x21fd030def1981f0U,
  0x6dddf7f6603fcbeU, 0xded3e9008102044aU, 0x56cc5603fbf881fbU, 0xf03f478116fffba2U,
  0x81dfd4c50d280a73U, 0x3f7fb20af92a0e00U, 0xd5777f7df2f9e542U, 0xede5ed9b13f3397fU,
  0x24050404f31081f1U, 0x40e0081ff04f1ccU, 0xa96c810c038d67e6U, 0x660b1ac40ed5e47fU,
  0x720002ffaebce7fU, 0xc70223fe79ef187fU, 0xaa815ae905c32008U, 0xe7cc01dffb1e1681U,
  0xf04c3f811602c6d8U, 0x901f7a8faf6f87fU, 0xdf33347fe801f217U, 0xcd508105da059d00U,
  0xf820c8fdf21981efU, 0x617fe4f10fe5249dU, 0x81992900050f2bf3U, 0xead303af08fee17fU,
  0x447f8e12f040e5f6U, 0x309e9e81060818b6U, 0x15d1c68117000de5U, 0x3eb659faf932810aU,
  0xca2cbcfdf781cfe9U, 0xdbec0bf6093b7f04U, 0x96f7e138ef242081U, 0x6e221728f4d0f181U,
  0x5f7fab10fc47dcffU, 0xe1756f81dbf5efe0U, 0x32a1a1a3b7092f81U, 0xab8644f7fc9c81d7U,
  0x2423e6481f107bbU, 0x2af2e01ea30ff57fU, 0x84dbbf8f3f681ecU, 0x4e2db7fe8fbfa6fU,
  0xd40d18f96efdfe7fU, 0x36700000285U, 0x21d00000835U, 0x3e6b00002547U,
  0xffffffd50000099fU, 0xfffffdcdfffffcceU, 0x3fd00000458U, 0x47000000cc1U,
  0xbd60000651fU, 0xfffffbb500000774U, 0xceeffffff00U, 0x2be2fffff8d6U,
  0x2704000027e1U, 0x13c00001657U, 0x1381000011a5U, 0xfffffde800002214U,
  0x175a0000257cU, 0xffffff5b00000226U, 0xdfe00001266U, 0x130fffff894U,
  0x151ffffffd2cU, 0xfffffdaa0000040fU, 0x20fffffc63U, 0xebe00000448U,
  0x410000002edU, 0xc06ade354661a445U, 0xa6b8d6332fb0a83bU, 0x32adb6424e314e65U,
  0x8ec13dbdc0c0d8e0U, 0xeace35bf404429f3U, 0xdf4b0ba23e39b632U, 0xacc7bcb3557fa052U,
  0x5ba0934f4ac19a60U, 0x47348c557f5260daU, 0x81e24f38b0bbb3ccU, 0xf0ae52ae53514faaU,
  0x995d81b75953a24cU, 0xd9d1d7122546d222U, 0xfec9b21d2205e12aU, 0x1a1fc921462225caU,
  0xa7581e1fead4d3e4U, 0xf6db27e322232bacU, 0xb724f7fa2a22d828U, 0xa77fae375dd7905cU,
  0x81f3925352b88f57U, 0x49816c54da4a6b7fU, 0xf7bb56819ea3b549U, 0x59b04fab606a46a8U,
  0xa55e6ba75a579b54U, 0x81a581817fbf817fU, 0x60ea817f7f81817fU, 0x7f457f7fcd7f7fbeU,
  0x10e47f358181817fU, 0x7f817f817f7f7f81U, 0x817ff5817f7f817fU, 0xc2cfc22542dfb23fU,
  0xaf0cb303ac4d638U, 0x40324039e23a32c1U, 0xf7f3624d4c3c042U, 0x38c53ccf313045c2U,
  0xc73abdc23e36c63cU, 0xd640cb1a32d2ce2dU, 0xb153b83727fcb829U, 0x1eb3f51ae2223249U,
  0x5ad71fb6d0d0d4e8U, 0xa9d625e62a3024b7U, 0xb62810e92c28ce2fU, 0xbdb8c0c750d0b648U,
  0x207fd04a3cbeb333U, 0x4229ee36d53d3bd1U, 0x75e83d1fc3b3becfU, 0x97be3dcf393940c9U,
  0xcc3f31aa3e3cbd44U, 0xdeefec1c2ee5d829U, 0x1843051f1ccce60eU, 0x2927ff1ce01c16dcU,
  0x433d2121e8d0e4e8U, 0xc9e31eea160f2101U, 0xfc1f09c11d19e01cU, 0x933d000009b0U,
  0x986cfffffb46U, 0x1ef8a00001182U, 0xbc7ffffff76aU, 0x821500000b8bU,
  0x5aa00005e0fU, 0x71e50000040fU, 0xfffff951fffffd9eU, 0xffffff4ffffffe38U,
  0xfffff71a00000292U, 0xfffff65f0000006dU, 0xffffb3d7fffffd91U, 0xa2bbffffee65U,
  0x1a1b10001dbf4U, 0x162f00000cc0U, 0x1b7fffff8d0U, 0x1ac00005b11U,
  0x1ba0000927cU, 0x4fd0000dfd9U, 0x9120000b62dU, 0xe53e000005a2U,
  0xa4dffffff4cU, 0xfffffe4a0000c62fU, 0xbef400000785U, 0x6902fe1809e9fdf0U,
  0xef3f011fa2a10cdU, 0x7f15f940fcf8f30fU, 0xe719f01af2fb57f0U, 0xf4123010d01434efU,
  0xce831b242b14e694U, 0x38010bdf0e15f4dbU, 0xfd00eeead406dec9U, 0xf0e4080812f677e7U,
  0x15daaae61811d519U, 0x1102d7fcfe20fbebU, 0xf417ff0a0c7fe1edU, 0xeb05bffedcf3f9ebU,
  0x8f30f0f1a100d01U, 0x81fffffcf3e7ecfcU, 0xfafdecff04f14af3U, 0x11a0b16ff0b36f9U,
  0x80ff6fffaed03d8U, 0xfc0200ffe20220f9U, 0xfefb06812600fdedU, 0x100608e2feee0501U,
  0x110412f71803f5f9U, 0x4291af613110104U, 0x1304fb08e317060aU, 0xe8171c140b09e024U,
  0x10010c01edf403e2U, 0x480e0bfb03b1f815U, 0x713b6093006e501U, 0x12fe240c8120dd0dU,
  0x609ecf5e90812edU, 0x1807f9003aec011eU, 0x10234030828fc02U, 0xe702040a031c15e8U,
  0x703f7fcec02cd01U, 0x40ef4f21e038142U, 0xf89cfefbfc1438a5U, 0xf303fbf30605fd18U,
  0x50407ef06ff06fdU, 0xde100906087ff500U, 0x7fcfcf4f4190305U, 0xd46d400db1ef500U,
  0xf40702f606f9f901U, 0x2dfb4ef723f6f2d3U, 0xfcf8fc4c7ffa1d00U, 0x43edfae3eef9e8faU,
  0xf5f3f3f5e2cddb00U, 0xfd60c60804ea0004U, 0x304f710c5c21c17U, 0x20ff02fb04ffcfd0U,
  0x60806322903bbfdU, 0xf4fa16ce05e13df3U, 0x14f574f72c040100U, 0x1b21458e81ed03fcU,
  0x20141d09e96dfc14U, 0xfefcdf131ffb05e8U, 0x10e05c83909d73bU, 0xf0f30833eadc12f9U,
  0xfe0b0b0ae7300a03U, 0x7a281f7994b13fcU, 0xd6f0090409381ae3U, 0xf409592b81def8eaU,
  0x15e0d030091822feU, 0x3326e81fdf35d522U, 0xd32c2130e00794d0U, 0xde07d611fa19aee4U,
  0xdd110e0e0bf3c1ddU, 0xefafbe243ffa34ffU, 0xb1fd36f702f03d02U, 0x20c96c9f8052b13U,
  0xab17db36ed12d80cU, 0x8108165ba4dbed2fU, 0x1f20c9f7b76141fdU, 0x640413020ff1fd7fU,
  0xfdf60e00e9c6f415U, 0x14030205fcfd07f7U, 0x3fc0efc05fd0fffU, 0x1e2f0ee0bf7bf03U,
  0xfb50f5c98306b1f1U, 0x102f6070600030aU, 0x503fb16040600U, 0xfd08f50c030a0106U,
  0xfd07fc0b7f110102U, 0xf106fb0914da0004U, 0xf3f8feff0501fdf3U, 0x9d281c33ba2fea3fU,
  0xe40fbb97bfbc8c8U, 0xf04a0f1445ca1a36U, 0x303ddc1d8adf3a18U, 0x9592cd8ce8148faU,
  0xe30e0100013808dcU, 0xcd4d1c39dbb5cdf9U, 0x419a1653ddee16f6U, 0xf139e799ab50343dU,
  0xd0303438391d2da1U, 0xddf790ed7f623d17U, 0x42efdffccb753d5fU, 0xe2bffff6c0aU,
  0xffffe0cd0000098cU, 0xffffe668000002daU, 0xffff5a82ffffd454U, 0x5e3e00000eddU,
  0xffffdab900007f5fU, 0xffffa9b9fffff747U, 0xffff512900009bf9U, 0xe31be3476c7fea2eU,
  0xaed75821b6c7ee79U, 0x1d0bfc5cfdf84f22U, 0xa261e6017fde4b38U, 0x59ce22c4fe01c717U,
  0xa35481f7500aa5b1U, 0xe5bef28325fc7d7fU, 0xdbd160c6ba6efe01U, 0x2bef1ee60a14fc04U,
  0x21981fbfdfcdbbfU, 0x10e488f603e7cf7fU, 0x1dfaf917fa820afbU, 0x1dd201cb61f4b881U,
  0x66f83b1bdfb8b487U, 0x29e8812830b40eeeU, 0xfd712fffb0fe20bU, 0xc1c51c0af5f6ce21U,
  0x1801008109b90cf4U, 0xb5fa18037f3dca19U, 0x11ba32faeb01a57eU, 0x492f3175cef7b781U,
  0x53878c6421a6b478U, 0x29eb18341381f129U, 0x4d615fef9f4dff4U, 0xe6c3c2fb0309c86aU,
  0x3b00f1cbec81fe28U, 0x81980b64c318b426U, 0x1af00f0e15b92dU, 0xc33e815ad0a31dc9U,
  0x1bed77189df9303dU, 0xf3dad432283dfa1aU, 0x34f2cc81f8bdc314U, 0x4b2c5dfe0c054081U,
  0xd10a08fc097e1cecU, 0x4d2a0bddded4f8f6U, 0xff4050f80aeb7fe8U, 0xbc3c030701cc7f04U,
  0x9d22d20970ca761aU, 0x10fa2d061223ef07U, 0x1bf50181f9d6060dU, 0xaa1e16e2a8f7c65bU,
  0xa37011ed8811cc7U, 0x1936eb307ff732U, 0xf60251f2f7ec1c00U, 0x7f1b00f00a12061dU,
  0x14172504200a010dU, 0x240981130daf12e9U, 0x25fc06c3faf4e8ffU, 0xf6e5fe3ac705c128U,
  0x247f54d35f3c1e22U, 0xdd0b050d05d3a281U, 0x361c26150fb003c5U, 0x3edd0cf7fd2f0009U,
  0xf02781060efac3b1U, 0x1b02e7221fd2299fU, 0xe6f306eb1a7fe124U, 0x530c03ff2215f8efU,
  0x25f3f781fbe90e1bU, 0xe816f025db283ff5U, 0xba9210104e22081U, 0x12ffc117de81f9f6U,
  0x130ae9dcebfaf2eeU, 0x3cd104280a88de7fU, 0x1cacf70bd1b3f9efU, 0x231661122d1e3286U,
  0xe5ef16e0077ffe17U, 0xdb0618c0ec7ff108U, 0x132515fa15f909fbU, 0xe30609198ad0eaefU,
  0xa3000f081dfc6e3U, 0xee13ec353027dd01U, 0xd8d57feb1af6278cU, 0x5f3430f1fede3687U,
  0xe40e1106f57f23fbU, 0xdc18c0b5e17f0bdcU, 0xc41c0ff06fc1412U, 0x9c7cd231af4f20dU,
  0x8f21b7ff645efefU, 0x7f44a5c6d1f7eee6U, 0x433e3602ce04f5d8U, 0x8f054f9f4f0fa44U,
  0xebe50c7f000ffc0fU, 0xb7e5fb1c81def8f9U, 0x1feeedf8db0bcff8U, 0x29efb8b69053530U,
  0xcd37fd4a94fc2b0U, 0xb82917157fe47211U, 0x242dd4051afa51d6U, 0x36d24f361781e5f8U,
  0x1c9e507ea25eaf2U, 0xf833ffeb81f61203U, 0xe021a5050de118f5U, 0x34d00c0ded3a1c0cU,
  0xf0327f090de5d112U, 0x36c011dbd816ec10U, 0xd2881082011dff4U, 0x7f9eff88109f506U,
  0x39f92e06f10ee20dU, 0x33040e5f78fedc21U, 0xf47f29f22b2811c6U, 0xc1e37f04e849f2e9U,
  0xc3fbfb622076e528U, 0x14d504130b0d301dU, 0xc91e1f0d7ffe012cU, 0xcc0ddf13077f3ce6U,
  0xee865efb260c09e3U, 0xdd1508d181d3eefaU, 0xb31e713fe0b2bedU, 0xaf20915cde40c08U,
  0x20157ff5e205e73dU, 0x81eecc0bf5d6e0f8U, 0xf3d4b5e2faf49e09U, 0x7f10eb053c1e2c28U,
  0x23cff44ede04e817U, 0xdffeccbee57fe84eU, 0x1738d33b1c970614U, 0x2ffbec81740f646cU,
  0xa9e7c5b3e35e17f6U, 0x8f9f1e800fad77fU, 0x1b03fb0ff38416e4U, 0x1f130e0dfdfa2281U,
  0xf11100dc00600809U, 0xc4b501201b194294U, 0xc397d537fd519f7fU, 0x64fc67443a81d7ebU,
  0xf597fdb2f228c618U, 0xdf1fc7c6d87f0cd4U, 0xf4acdf40b021105U, 0x815bfa3e1bf5411cU,
  0x32fc8eeeeb056feeU, 0x81010a41ea071705U, 0x1326d9f8cfe4c7e8U, 0xd80c13d408ee0281U,
  0x5030153932b1dcb3U, 0x23e8fa037f01d3faU, 0xeda9dcfaef061b3cU, 0xe200efcb7ff6030aU,
  0xd0e4c1e7e70e1cd1U, 0x813ef02f75105d56U, 0xf11dd8053711690eU, 0xf2ed67f9cffd80eU,
  0x7b4d6c08c547e154U, 0x5fd8812e550a2e0cU, 0x22c3cb0c0e10a327U, 0x12e4251032efb781U,
  0x6003123426a4e2cfU, 0xf0feed123cf5eeeeU, 0xd6c77f1508fd0b49U, 0xf027edd4e213d34cU,
  0x3221f4811a89f7d5U, 0xeb0009de7fe8f0f0U, 0xdeefcd00e5f116baU, 0x81ea0c242dfcf500U,
  0xd720ece617068310U, 0xfad7fdd93221df7fU, 0x23cd0d2533d7f72bU, 0x21c1f40bfd31fcf1U,
  0xe3217f10ded8e32dU, 0xcbce3c2b122f13fcU, 0xd6e3e97ff049d10dU, 0xf22126097fafa685U,
  0x30f3aa360f9c21aeU, 0xd9d85d7f26ba073eU, 0x199bf5e1aeec92f9U, 0xe9b5ec8126fc7a7aU,
  0xd9fe62c9c573feb9U, 0x1cf6f308e90e2a7fU, 0xb0e6e4cbdf541025U, 0x81fb182be4c7ca03U,
  0xf300fbe70c1bcae8U, 0x574afafbcdd5fce6U, 0xe8403f1dd4f97ff3U, 0xeafce1000008e666U,
  0x17f4131106810200U, 0x36e34af6db0f24e7U, 0x50d810a0a1fe0faU, 0x81ddf63dd29fea01U,
  0xeb1afbd9e4f6e005U, 0x70cb0623811cec1aU, 0x2e1e29f70c20b351U, 0xa469fc4738d70ff7U,
  0xecf2ff1429d87f45U, 0xfbf381fff5d6f02bU, 0x1909f41efad1fcfaU, 0x2c00112a3d7f0414U,
  0xf8ff58191dbf1be0U, 0x280bc7e1f2d7da7fU, 0x31ff1001f9842ae5U, 0x39f6e06f4d2ced10U,
  0xb3e97ffa37fef107U, 0x4152b1328282a8bU, 0xe2f021ebfc7f050bU, 0x59700004e70U,
  0xfffffccd00002670U, 0x18d800001902U, 0x1b3e000043e0U, 0x523bfffff9f6U,
  0x6c500001fa5U, 0xa96300001dcbU, 0xfffff644fffffdb7U, 0x383a00002b4aU,
  0xffffff2a0000086bU, 0x4133fffffcb2U, 0xef6000013eeU, 0x1814000025b1U,
  0x12e500001969U, 0xffffffe800000045U, 0x2a6400001d0bU, 0x7b7000047caU,
  0xfffffd8700002207U, 0x1f1b00005719U, 0x166600000324U, 0x373a00000346U,
  0x12e7000036d8U, 0x32eb00000dacU, 0x1c6600003b8aU, 0xf43000014f1U,
  0xfffffce100000170U, 0x1e0c00004cc6U, 0x466100002252U, 0x210cfffffeb7U,
  0x117700000f41U, 0x20a3000037d4U, 0x1d1300000cc4U, 0x13c600001a4cU,
  0xfffffc6100001c39U, 0x223700004ab4U, 0xfffffa5700002d83U, 0xed5fffff923U,
  0xdda000007ebU, 0x3ca800006accU, 0xfffff4c500003888U, 0xffffe60500001a46U,
  0x2e1fffff63cU, 0x184a00001f29U, 0x17aa00001d89U, 0x11f30000350eU,
  0x118a00002538U, 0x600e00004028U, 0x3fc4ffffd552U, 0xcbc217ef68ec06efU,
  0x36fcf803f763fa11U, 0xdf20034a03de1005U, 0x30180d15312c1102U, 0xe6c53005f10a1bf9U,
  0xfb19c8ab111b0914U, 0x2f70531faf8ecf5U, 0x1b7ffe1be11cdcfdU, 0xf9022342cb0bf5f3U,
  0x401d81110445e04fU, 0xede31d26f27f0f01U, 0xcfe140151f2f923U, 0x81f6f8340af80cd0U,
  0x5c04f4effb810e26U, 0x1a7fa04cf0f2e212U, 0x12cf241bf097e1c3U, 0x81c07fe8fff20c77U,
  0xd47f812e0ee2ed09U, 0x381fc027073132b4U, 0xec04227f549b2a24U, 0x2eeee225ffa0da2bU,
  0x40dfc4e2fc6ad0d0U, 0xd73630f509f03ebdU, 0x8117e18148f336e4U, 0x16261208b6e9fc00U,
  0x6f6f4003e05fefcU, 0xe018190611f011f4U, 0xb12e05f90c0ae101U, 0xebe2030cea09112cU,
  0x115e01708f00307U, 0x8fa0605fb06f807U, 0xef03ee0bfe072cf9U, 0xee29f996ce1fefe5U,
  0xb06f50a11f4ea81U, 0x241a15d8fddc17f3U, 0xd3fe0713f419efe8U, 0xd4f5f0ab25ee3bd8U,
  0x3ff9e8e1ebd4601aU, 0x10e3813af3a6e87fU, 0x1ccf2425fa81d1ddU, 0x2ecdfd4103c7b581U,
  0xe0f4cd23fd0156edU, 0xefdc092c15fc2b7fU, 0x7f15a7dc7f84091fU, 0x35ee7fdc7eabdcc5U,
  0x307fbadd0825c9ddU, 0x2fa01d7fff06237fU, 0xc51d6762289adddaU, 0x177f81d27f7f7f7fU,
  0x7f7f7f958110817fU, 0x7fbc177f81c381f0U, 0x7f817f7f81c97f7fU, 0x6d5fd4817f8481f7U,
  0x7f958b7f7f7f8181U, 0x817f7f8181817ff3U, 0xbcbae59728d5817fU, 0x7f81957f7fb87f7fU,
  0x7fb57c8181817fd6U, 0x95e781da7f4f7fd5U, 0x758181ea81e98181U, 0x31eb467f02da42e8U,
  0xf9f3e1e6fbf31705U, 0x8df44d1e2781ea98U, 0x848230a487cd7deU, 0xea30537fd7fd17dU,
  0xd6f4cce901e91724U, 0xf2b5fcfa28f40e51U, 0xdc007f02a77f1418U, 0x1870ef0f64b5e491U,
  0xfdd5f9e32f0cc8efU, 0xd17f23a7182e08d2U, 0x1322238ff67fea20U, 0x1f280efcc3ebd8fcU,
  0x7f9de1834ec0afeU, 0xe7ef1ef6150d0229U, 0xb531f9f60309e802U, 0x11c1dd1fe7e443daU,
  0xfff4b30d14de0909U, 0x6ea0107f81106f7U, 0x1105f4fb22cf2cffU, 0xf4eb0bc8cb16f6faU,
  0x1138f40e1200e089U, 0xaeb190c0fd81616U, 0xe2f92814fa171905U, 0x42e74ad317e5f6e4U,
  0xeeeef97ff436fa06U, 0x91d34fe918c8d8ffU, 0xfe362b0d4665d1d1U, 0xfc81e5e3e9f13f85U,
  0xd0eed4e625f1f22dU, 0x341db0f519441cc4U, 0xf8c714c94b1a11U, 0x17c1e5f5c881e613U,
  0x1c817d4f9e2d224U, 0x7fa43f050b132331U, 0x532eeb73ede27f10U, 0xdd5410c1de6def7U,
  0xf3f6ce0c0e00f904U, 0x4eb06e81412fad4U, 0x1d22fafe34fd13fcU, 0x8e2e6fae9132a11U,
  0x4f3e0b60916f40bU, 0xfbef09f7fcfff0feU, 0xe30931ebe30dceffU, 0xeb34072dc924fef6U,
  0x16fb0b0b16eec91fU, 0xf72637eff25920e2U, 0xcefaea0aed020c6dU, 0xffffdbe1000026dfU,
  0xcd5400000b2aU, 0xffffef09fffffaf5U, 0x88affffd31cU, 0x4a8fffff506U,
  0xfffffacc00000b23U, 0xffffe52b0000054bU, 0xffffe9a300001474U, 0x4212fffffa9eU,
  0x85b000065d3U, 0xfffff5c9000005e5U, 0x5e00000013U, 0xfffffb8f00004718U,
  0xfffff216fffffcefU, 0xffffe25effffe888U, 0xffffdc290000158fU, 0xfffffe77ffffff86U,
  0x33250000003fU, 0xfffff1e1000005aeU, 0x1db00004ba6U, 0x7a2fffffff3U,
  0xffffe21cffffd925U, 0x106dfffffe45bU, 0x324900000160U, 0xffffcf9000006c09U,
  0x20fb00000019U, 0xfffffe9200001cdcU, 0x8f3ffffeaf5U, 0x76fffffced4U,
  0xffffe5fc00000800U, 0xfffffc67fffff9d1U, 0xfffffe53ffffcd2cU, 0x3f43000005b6U,
  0x697b000070efU, 0x1b4ffffd004U, 0xfffffc9bffffe258U, 0x20f70000cdadU,
  0x3a700000010U, 0x7fd1000048e4U, 0xffffe272fffffef8U, 0xffffe0d0fffffa19U,
  0xfffff2a60000042cU, 0x2490000029cU, 0xfffffe9b000004e5U, 0xfffff625000005bcU,
  0x4fffffffefU, 0xfffffe6bffffffe7U, 0xc227000001f1U, 0xe3dc452d13f612ffU,
  0x44170df6080d032dU, 0xf008c862f9f8f901U, 0x302efbfaa1d6dce9U, 0x9ecec09fe04fb76U,
  0x19f3e203e1130de0U, 0xfc07f3def70214f3U, 0xf6f61ec4e7eb1726U, 0xe501040c0138090dU,
  0xee07a7f903fffcc2U, 0x1906f31dd5c6ed26U, 0x7ff41417e01303f9U, 0xd4f0bef5522c9f4eU,
  0xcaddc20a1af9a4e7U, 0x1bd993dc1618fbacU, 0x33f05ee410b6bf7fU, 0xe632f5eb18d50d0bU,
  0xfb3810c8de4cb201U, 0xea28b240b9001623U, 0xcd14bd2595ef1c16U, 0x1d933292e22ac04U,
  0xea12602542eb279fU, 0x3fff40ad23b5062aU, 0x128d3070a140cd5U, 0x25f6ff05e30e111cU,
  0x6300aff470ef041U, 0xc606bfecf80ef2f4U, 0xc37f15f819e4f1ffU, 0xe8d47e113de7b712U,
  0x19c1ced224fbee01U, 0xe1fcff1adedf1f1dU, 0x5d4d05031cfc02e6U, 0x9f3eff5b613b007U,
  0x14063a0f0fea0bf0U, 0x50b05f4f31c5c0dU, 0x42f904d4ccfc0319U, 0xe9feea1a23dfedf5U,
  0xf82bf00705020ef0U, 0xf4f6ee0816d828U, 0xec3ed216f9090aefU, 0x7f4f8f431f2f20fU,
  0x10105fbe215be0aU, 0xdbe5c58a16f12d81U, 0xf0914f935f20a1cU, 0x1aff0f371bdca4efU,
  0xda19cacecff70cd9U, 0xd2338264412ec0bU, 0xe5f0ffe106f6f820U, 0x6cef2ffb810e200U,
  0x70a4907f5e3d2eaU, 0x4351efa0207f434U, 0xf9fbf7040b12fcfdU, 0xf603e92411020adcU,
  0xf1f6f820e29b080cU, 0xf908eeeaedf35205U, 0xf904070b211ae1fdU, 0xfff00ed0ea188c26U,
  0x53741e91eed10f4U, 0xfcf4ec29d97f050bU, 0xd4fb19dd13fd0843U, 0x71fefbf8f9fe01f8U,
  0x1f2318f5e1f3ee3aU, 0xcafcf3d0d702f6efU, 0x2f4507484b18070dU, 0xf0e1c9cbfa0012ceU,
  0xc070e40fbf5f0daU, 0xfa02efe408eb090eU, 0xd5e916cc21f7efe9U, 0xff050ffa07e90d09U,
  0x7f091af8fb070922U, 0xe016fd032016d5faU, 0x8af6ebdd8113e7fdU, 0xef1edfccaf5fbe6U,
  0xf406c024fef114fcU, 0x15ed04030b1dbefcU, 0xf60df91300fff84bU, 0x2314041403ea01eaU,
  0x811aeafbeccfe3fcU, 0xd5f9030a0b122216U, 0x703131406faf824U, 0xe90ff5eaeb194026U,
  0x3041be3f92c0611U, 0xec142bfee231faf0U, 0xef90aebf9db0717U, 0xe7fb02fae8230a0fU,
  0x51aa4f7f2f0f4fbU, 0xfbdcf00af7f1defcU, 0x107070aef01f5ecU, 0x19e3f502eef704f4U,
  0x4bf10efb1eecf307U, 0xcefe05e6e7f119feU, 0xf9f406fb01fe0029U, 0x2805f9f3e50e27ebU,
  0xebfd073407f3f6f7U, 0xfffd7fdeff24dd05U, 0x5fbfee914feebdfU, 0x1bf0f82c01c62bbdU,
  0xf149230e09d4490eU, 0xffdf1b1111b220fcU, 0xfb00a4320b16e8d8U, 0x2fd71fedf70c071aU,
  0xe62df9d981050d09U, 0xfc144b95450214cdU, 0x1407d900ede7ec07U, 0x501c02f6e91f22e1U,
  0xdbffa3f8252721e9U, 0xd30d05c10516f2f0U, 0xf3eef22306e52402U, 0x15ec1711dddec81aU,
  0x1307e7d50dfeef1bU, 0xd4e606e9ec2604fbU, 0xfeeddde0f41d0b21U, 0x13dc290621140df7U,
  0x811bf508a9ec0c0cU, 0x6f306f11afeffdfU, 0x1d0c0b0c0ff519d6U, 0xe90cf60a2c236e18U,
  0xb0dfd4509de01f4U, 0xfc1902d70c03f5U, 0xef06090600dd21d1U, 0xe4f48e4421ec321bU,
  0xb30f17f3fa1f3204U, 0xe2f5f5a926e92711U, 0x2502080e31c9e4bfU, 0xf9f4ea4ef320f1f4U,
  0xbd8f4c7ea3041f0U, 0xf306f4f3fdd9ececU, 0x17f10600efe91f0bU, 0x361cff191c382b09U,
  0xbee1b00f4c6e9ccU, 0xf561cd3ee1bdfb1cU, 0x81f22651ef1a0cecU, 0x4350ffb17e1282bU,
  0x2230100f4e8effcU, 0xf8050d01fa9ef7feU, 0xfa01120303f6ebd5U, 0x14f90d09140607faU,
  0xfb03da1da03b1b05U, 0xcf61218d00b0c81U, 0x7f7ef0e0307f3f2U, 0xa19fe100bee34cdU,
  0x5cddcfc1d0ce5cdU, 0xf6f3f7062e58fd0aU, 0xdea08fefeef1703U, 0x10d21e7fd08fbe1U,
  0xd9dc070004f3067fU, 0xebf71d374b0a1b19U, 0xdb1f0698e6110a01U, 0xf628ff12edf8fa04U,
  0xfd071c020bfbeed1U, 0xfa09fe080bd70512U, 0xf50cf3120f0ce646U, 0xdff107fe02d91efcU,
  0xc40bfb1b05bc0b10U, 0xe7e5f2f0262707f3U, 0x80deaf22efc1108U, 0x108fe1d1ce5f51dU,
  0xf30cf60bfd0902f9U, 0x409eef60bdeba10U, 0xffae0f5fc000a0aU, 0x1007ff102b070500U,
  0x81f51111241608ffU, 0x612fcf10605fd14U, 0x5fa11060c1610f5U, 0xe1f60e05cceeecf5U,
  0xfe0f01e814f824f3U, 0x12091a0d11f3f51aU, 0xf9f70d02fa16fffcU, 0xee1e421361bce8cU,
  0x18109400df508f0U, 0x1526f9f420eff14eU, 0xe0b2d8f3210894U, 0x1701241eba1903fcU,
  0x3a487a12dfff2214U, 0xfc24fccd230c338dU, 0x310c32233c400b09U, 0xacc950092fd4f2ffU,
  0x582af62efd01afU, 0x22300c2c1c24103bU, 0xe5171b01fb472f1aU, 0xea244bfd0626e55cU,
  0x23f4f8a7050835f0U, 0x47a7170bf2332b0bU, 0xb2c02b1afe300a19U, 0x96c8dc2a012ccb0dU,
  0xdae735ff250423f9U, 0x9344832c1accd56aU, 0x171300811813c103U, 0x15e44de12fc9eb51U,
  0xf045c81807141b2dU, 0xcafffef15229fff4U, 0xf5193dbd0048fa03U, 0xffffecbefffff15cU,
  0x7d6dffffd02aU, 0x1128000067b9U, 0xffffeea7ffffe9f8U, 0xa7a000061b8U,
  0x5c4b00006d98U, 0x307fffffd900U, 0xffff8b6c00008c65U, 0xf20c201a4ee74100U,
  0x822c810567c5231fU, 0x957fe31aeaf63314U, 0xc21d005eef35701U, 0x5d37f900e9dc2281U,
  0xcd200fbfee6d37e0U, 0x7f493acd403241baU, 0xc3a8b72a0688450bU, 0x2efd41ed4123ff0dU,
  0xe981fc17fcfef007U, 0x1bfbe808ea3ae2f9U, 0xe7c918f181e265bbU, 0xb9bd3b29f521000fU,
  0xdcf0e87ff22efef8U, 0xf807daeaf37f0c14U, 0xf222f90bd2ae1bb1U, 0x2f1555c7434e1e15U,
  0xb18106daa30c052bU, 0x1501df0c2f398920U, 0xe09307e40a51027fU, 0x3bf2099aed05a1d8U,
  0xf95340e3e42e7f64U, 0x8192e40fa108ee2dU, 0xc029e81fe2f62acaU, 0xefa0d9ddd80a05f1U,
  0x2e597f1910e7b6d2U, 0xe800bdf61ebc9cddU, 0x1f7f1217f3f30c34U, 0x7f0a21181e39c501U,
  0x77c32c0dd80c3715U, 0x5ffd103d02df15U, 0xdcf9eb00dd0e8105U, 0xb927080c20d2ac27U,
  0x74406907045e447fU, 0xea0837737f38bab6U, 0x22893913d3f5cc78U, 0x28f5ff9a13010ef5U,
  0xfd438105d2eceabeU, 0x5e922061b731c039U, 0x7f2f44f13151ab63U, 0x31de0af7c243eb2bU,
  0x7fd90e0bf25eccf1U, 0xcdaf0d0fdb00f1c0U, 0xf821f2810c023de9U, 0xf006bf10e419e719U,
  0xeb4df1eed6f21a81U, 0x3f70a06f811060fU, 0xdb01fa7ff32afaf8U, 0x92eede4bf0201f3U,
  0xc2a9c0581f7fecbU, 0x81b3e53dfbd10e91U, 0xd116abb2c6e139e1U, 0xff00e17f9335f626U,
  0x4f0368f6e028ce7aU, 0xecfdcadfe315e363U, 0x2801f2100e8114e5U, 0xc949f332af81ed89U,
  0x2fd7f62b10c134ffU, 0xd70813f77ffce0c0U, 0xdb1cb61631b100f7U, 0x4be22c37ec7ff239U,
  0x47bb1af7dc3bb1dcU, 0xd812c2ffd002a90dU, 0x7f425eeb126629f1U, 0xd7b8178126de48f2U,
  0x3c22330a3100dfc9U, 0xd31502157f1cf01dU, 0x66050205ea3d319aU, 0xeb81d54cfb0cff24U,
  0xa0608e304d857d2U, 0xf8e6811301f40f47U, 0x12fa154bfeac00e7U, 0x16e00d2c0681ff15U,
  0xaee0d02f601ede0U, 0xc51618c6fa7fff01U, 0xfd0ef61512d01cf4U, 0xeb0c4f1a1bfe2381U,
  0xeaf40ce1e47eed0dU, 0x2481f4212210faefU, 0xfbffecfedefe1d0cU, 0x23392f0b7feb4c02U,
  0xe3bf2c1439e5debbU, 0x5c7ffecde9d70d10U, 0xf7274002fde254ceU, 0x45c02520f0e4cc26U,
  0x28c22dee2e7f9f56U, 0xb1b41322d91b03b6U, 0xf923f281f1022be5U, 0xd0fdecfcf9f10607U,
  0x2d024b112b13fc7fU, 0x33f1f6229f0baabfU, 0x7fd76e1ee4ecb410U, 0xb603e7af5ae511d5U,
  0xda011ffef3d32981U, 0xe9fe3a037f9bf0e4U, 0xeb17f0e93a37330bU, 0xf9f1d815811900f4U,
  0x2d653af4ed1a0cccU, 0xf1c72bf2783318eaU, 0x819fd1e1d4a2ce16U, 0x38ec103e8f184402U,
  0xe40fd7030adeee7fU, 0x81cbf62efa15e30bU, 0xf4f5f4f2fffbb90eU, 0x67bdf02621f81218U,
  0xd9076852d8d67fadU, 0xe81ef8d9a10562f8U, 0xf8a8811033d5cfc1U, 0xde07e83020110afeU,
  0xf3d57ff8ecf31cfdU, 0xfced0430eb5c7f83U, 0xf277e3f1f16c1dceU, 0x23f2ff5a8a15013dU,
  0x385f0ee77f31cc39U, 0x7f2a12eb4211fee9U, 0x12063403e60603fbU, 0x14f5220686fe7f15U,
  0x412ba80651fdf96bU, 0xf91cfcd38d2f321dU, 0x13ba81f2bb1d1808U, 0xdc1e7fdbd571f533U,
  0xfa1e091cf5ce23f4U, 0x7f6e09c5cfd01de5U, 0xdf174e0b0df84aeeU, 0xbc320affff9fef3U,
  0x251810fcafae9e6U, 0x8185fe2aa7fee10dU, 0xd819013a0aee61c6U, 0x81ddfe4a2f22fde6U,
  0x5faeafbd600911dU, 0xce2d4d0fc11d1281U, 0xe2ef10fff5321fb4U, 0x32e610ca10570941U,
  0xee8133eca842f9ceU, 0x93adcf3a3fd8e027U, 0x19ae109fdeb7812bU, 0xc903a5c936b9e30dU,
  0xf27f39e4be29f1ddU, 0x531a82f439b924e4U, 0x4f0217ff234071aU, 0x5e7f09d4dada0a0aU,
  0xfb102a0d0aed35ebU, 0x380a0318cde5f70aU, 0xa4a810cfff6d4e3U, 0x81d2d71f21f52021U,
  0x322a3b2f12cd3b12U, 0xe225edabbee381d2U, 0xfa40cf14dddf0cebU, 0x618105fa653e1de3U,
  0xfef1f7ffd7d9de18U, 0x7f5a5ee30fdb20c8U, 0x150e4d8add023afdU, 0x8e81b82ce9d8eb0dU,
  0xdf49f92af80bf0ebU, 0xd6f3fdd4e9df09dfU, 0xae192ef909c0077fU, 0x23e344475df48196U,
  0x3f64e6335592bb00U, 0x1030087fca20f526U, 0xd90be6fc1f031850U, 0x703d2e8933fdff4U,
  0xfdb7f01cbf4d8afU, 0xf0ef31092729f712U, 0x108121fcdafdf707U, 0xd1fddbf5811de7acU,
  0x1e9c88ed89cedddeU, 0x27fc0bd2bde50afeU, 0x31098114b40affb5U, 0x17c603c93114237fU,
  0xb25313b8076bebf9U, 0x75d5fa2ce011ebf8U, 0x81534febddbb8cabU, 0x2dd841ca0008fe12U,
  0x1cf281f2e91ecfa4U, 0xfe01e0dbfe14d57fU, 0x23fff9250d920f07U, 0xeeeae9f403e85428U,
  0x867fdae62824166bU, 0xbd1ce9dbedaa442aU, 0x81ebffd8de193331U, 0xbd7f0eb8b101e3f3U,
  0xf2daeb2baf10b05cU, 0xd81effd59eeb050bU, 0x7f24ec0c313f18cbU, 0x81b9f2380d070310U,
  0xebfcf0dde3fcc22cU, 0x32e6fcd981260545U, 0x19e874dcec51b62dU, 0x4f081410ea02d98U,
  0xfaeffdffe45bcffbU, 0x3e3fefb81153be7U, 0xf8c01efeb7c5e115U, 0x1ca100000733U,
  0x7a660000367eU, 0xfffff288000040c1U, 0x15b4fffff8feU, 0xffffed6a0000873fU,
  0x123f00002c73U, 0x2f8d00002228U, 0x63c00008bcbU, 0x284e00000a6fU,
  0x198100003959U, 0x197ffffff15U, 0xfffffbbc0000323cU, 0x3300001363U,
  0x1ec200003662U, 0x9b3700001c18U, 0x47eb0000d519U, 0xfffffd6300001f4fU,
  0xac100002911U, 0xda20000059eU, 0xfffffc2900005a30U, 0x26c300003200U,
  0xfffff1dd0000a4a4U, 0x22ad00006ac4U, 0x3e810000197aU, 0x2e2c0000f7b2U,
  0x22f5fffffdd8U, 0xffffff2cfffff147U, 0x1c5dfffff617U, 0x3f98fffffda7U,
  0x23df0000182cU, 0x44fb00001600U, 0x16c600001c0dU, 0x243e00002decU,
  0xffffe5a6000016e2U, 0xfffff33e00001e7fU, 0x296000001538U, 0x185900005191U,
  0xffffeaa4ffffec91U, 0x14d00001c7dU, 0xfffffb2f00000a31U, 0x34bf00003e2dU,
  0x4048000017d9U, 0x12800000db4U, 0x119d600002d22U, 0x2d3400002971U,
  0xffffff2500001963U, 0x228000001be5U, 0x30a60000147dU, 0xc54b47167ff6b8d2U,
  0x12500e2fbf1eef1U, 0x57f8113161bd4f7U, 0x18278183e43207acU, 0xf81ef6e2ee3c1a0dU,
  0x2e25bc1946941bf3U, 0x3010fa0313e834eeU, 0x260a00f5edc4cea6U, 0x7f1310f80d4ae744U,
  0xf97f11f5ff1a1717U, 0xf0b4147e14e40ff2U, 0x19f1e702daf1e0ffU, 0x8a277fd56a4b817fU,
  0xff39e7f7fef0446U, 0x4351b47f907f7f0bU, 0xecc52ec9debe8c81U, 0x3dcbf2d5ac8135a7U,
  0xce908fcd517f7fffU, 0x532de142542b81f1U, 0x43c3d6d48fb12ad2U, 0x5bef20af1e1ac349U,
  0x34df3a01130d7f75U, 0x7f904bf7e97f7f41U, 0x69da81a681059c87U, 0xf840e60fae1ef4b6U,
  0xf3f7fbed12e5dd50U, 0xfe1d99e9fc07f0f7U, 0x9f13274c9086186U, 0xb1322f7e30e0e01U,
  0xd25ee12408a0c19U, 0x15fd01f605f00bf2U, 0xff21290234e006bfU, 0x24fc020a17e1d9f9U,
  0x2acfaf404fbe70aU, 0xeadf099203eee8ebU, 0x1f2e61de0e718cdU, 0x7f125dd0dc4ab5c0U,
  0x1f4e8e1a8900ebccU, 0x312fba3559efc4fdU, 0x997a40e7ea7ff4a1U, 0x5ee320dcc8aa5a81U,
  0x41e97fd02efbe6cfU, 0x201bca0efe145f10U, 0x7fdcdf7faab97a7fU, 0x607f277ffff1da48U,
  0x9e10d0e0cfb66d8U, 0x1ec922016eb07bd5U, 0xe9bb7ff9e0814fU, 0x265a537f8e397d43U,
  0x7f8181bfd97f7f81U, 0x7f855f67ce85c07fU, 0x81816d817fd5a595U, 0x7f96817f7f6b7fa7U,
  0x8181dc81816ea0bfU, 0x817f7f7f2b56907fU, 0x9d81b0147f818164U, 0xad9581827f817f81U,
  0x7fb27f817f7fb181U, 0x2d5d7f3c81d61e7fU, 0x817f23bd027f0c7fU, 0xe5239ec826cef3cbU,
  0xa0e5c015de4de13U, 0x6d6aa027ffa40fcU, 0xc211f0bbecb969b7U, 0x29bc2de3ef0526baU,
  0x2d10c5d81ddafc7fU, 0x1304b8db06f57609U, 0xcc5c7fdd1601025fU, 0xaaee7ab2f5260cd5U,
  0xdc4d0f1bebefcaffU, 0x1748efd00e38d6baU, 0xfbe561d514d53e0fU, 0x1841d30debfc01bdU,
  0x1e61212fedce437U, 0xf702aeca010741f9U, 0x1a192759bb23cae5U, 0xfffc23f9d2f5f711U,
  0x240b1f0469bcfaf1U, 0xf09ff15ec0be1f1U, 0xfceb000f0ef118baU, 0x1e1a0ddf0fd2d1ffU,
  0xf3b20511041bec0dU, 0xd50c07810f11f8f8U, 0xf8ed3909d0e5cec5U, 0x1e26e7b8dd812179U,
  0x24f36fb394ede3bfU, 0xd9cd5c82f7ce02U, 0xfcf7ebdd14cd7f94U, 0x357fe4e9051b0fc2U,
  0xd5bd4cdade44f20bU, 0x2701e6ce8181fbdfU, 0xd109eef9270bf9bfU, 0xbae86c73ea4021caU,
  0x163304630403c60cU, 0x287f080302ce9f0cU, 0x1af64f2992ed26c3U, 0x281bc101aee0dcbU,
  0xfe13e60f04f0f8f5U, 0x10eb8cf1105f0f8U, 0x10f9d9d00315a111U, 0xd72a03dde7faeb2bU,
  0x10174103dfd0fe17U, 0xfbfc0611f70afcf7U, 0xf6540af5da03f3c3U, 0x14fc05011cfffe22U,
  0xf44a00230e0010efU, 0xd92b004aeff8f803U, 0xf0f202f8caef273bU, 0xf4cb000045dbU,
  0xfffffe5ffffff9f9U, 0xffffecbd000038f6U, 0xfffffef60000006dU, 0x36ec000015ecU,
  0x3ffffef9aU, 0x1332000002abU, 0xffffdd1400001395U, 0xfffffe5cffffefd7U,
  0x36cefffffebaU, 0x40e0ffffd68aU, 0x24bdfffff773U, 0xe00005610U,
  0x3d97ffffea09U, 0xffffb2b00000373cU, 0x549500000699U, 0xffffdb2100005caaU,
  0xffffffbf000007c7U, 0xfffffffbfffffe0bU, 0xffffe36d000010d9U, 0xfffffbe5ffffeafeU,
  0xfffffff6ffffdcbdU, 0xfffffa2d000073feU, 0xfffffb97000033eeU, 0x85bffffc643U,
  0xdcfffffff4U, 0x3f0ffffff4cbU, 0x3785fffff064U, 0x3e00004b01U,
  0xffffffcd00008b22U, 0xfffffdb8ffffdde7U, 0x40000062eU, 0x3288fffffb75U,
  0xffffe12cfffffb93U, 0x100bfffff218U, 0xfffff054ffffffc6U, 0x15000004c6U,
  0xffffe856fffff826U, 0xfffff847ffffffa4U, 0xffffe5900000afafU, 0xffffd2a4ffffe992U,
  0xdcffffff97U, 0xffffceeb0000ef4eU, 0xffff9394ffffd715U, 0x2552ffffe336U,
  0x8639fffff80cU, 0xfffff8130000001cU, 0x411fffff52dU, 0xd9f911e003f3efU,
  0x6e6f7f905f50410U, 0x505e00afefd04feU, 0xf629dc207f040b04U, 0xfcda0df7020606ffU,
  0x50e0e06240007f5U, 0x51f5ed1109f90118U, 0xe70018fbdde40805U, 0xf1110a0725ebbfd8U,
  0x60212e6e9fbe0f9U, 0xa4f8f6fd1519e5f6U, 0xf4dde02efc06f103U, 0x263ef27fc7b7bb23U,
  0x26c4fb04efc8a7ebU, 0xc9f026132a2e06bcU, 0x25c4ed21bbf5f80eU, 0x1502f80801051feaU,
  0x80a5ad9ebd724e2U, 0xc3327ecd80db61aU, 0xd500ed18dddeeac8U, 0x11ece6fbebe568abU,
  0x72cce2202e49735U, 0x1aef21cd011be506U, 0x61210b1b09fed91dU, 0x481f4f59f5ab3802U,
  0x181b00fceffd9afbU, 0x1349fe1441d1ef08U, 0xc92df622dafb1931U, 0x1e1aad8122e62520U,
  0x4201df14ed10d202U, 0x35f8fa57f6e612e3U, 0xe51f1617041f0a20U, 0xdaf102d401ddfe11U,
  0xf81f30473c0cb2d6U, 0x270f1cd8f408d61dU, 0xffc1ddffea051beaU, 0xf513dd35f85e1341U,
  0x682624fdd510beecU, 0x1028f67c071dfb16U, 0x5afa2d2113eeed3aU, 0x2af9eaebf91d1896U,
  0xa2cd2b170f49e1afU, 0x170281fd2bc6dbc2U, 0xcaf2640d253d4990U, 0xbc00e61ccef84621U,
  0x2b32fe0eee38db2fU, 0x2a180fe3f313b7deU, 0xdc2c672327130f1aU, 0xedfa247ff513fa18U,
  0x32f816d1e1dbd2daU, 0xee1d06ee52dcb21aU, 0xde36f308d90cf901U, 0x80811270beb0a55U,
  0x8f4cefce8e5f9e5U, 0xe90addfb09ec0823U, 0x173c36fe1be0f41bU, 0x3c2a02d5fcec2c28U,
  0xe04e211ee6d7bd0fU, 0x302609bef902dbf9U, 0xeb180b0ad70120cfU, 0xe528ef1b0cf1f309U,
  0x10ff1bfd06efd7eaU, 0x42d70c1efb0ffcf8U, 0x1f0c1dfb990dfa0cU, 0xbf8161bc20503fbU,
  0xe904fefaec19f8f6U, 0xccf9e3fcef09ececU, 0x22000e4410e90efdU, 0x1d0c5e084d0239fbU,
  0xb12f6e446fa0c0aU, 0x7ff30ff413fff6f6U, 0x11c30f02f3fd1bfdU, 0x15210ce0dc13b219U,
  0x1de3fedcbaf0fd06U, 0x70d24d5fa00f810U, 0xfb270eeef4f0fee9U, 0xa212f3fafd3d083bU,
  0x12ecea0ede035aecU, 0xf7f6c4ec43e524f3U, 0xb22639f201f9c303U, 0x37f01faeb05e31dU,
  0x511f7ad19e009d8U, 0x1627fee9ff152a1fU, 0xf0e0fbf1dc30080bU, 0xde2b31790c2d7f05U,
  0x1b141ee7f329e5e3U, 0xb25e0241e05d90eU, 0x1509ef17090d0ffbU, 0x53fa0a1508d3fb2eU,
  0xea1de6f516141bd1U, 0x30ded717091fe3e4U, 0xfafcd4f3ffee032eU, 0x41fadaf8a8de49c9U,
  0xf3293a390f11e3f0U, 0xfef837f0f9f6ddd4U, 0xfd17efcedcdc1ee1U, 0xef2ce481143201fdU,
  0x8190df10840541cU, 0x4291fed9fe0b0bd5U, 0x34010d06f13add10U, 0x2304f2e7f8ffec4aU,
  0x22efbd5082ce10dU, 0x2bded9c3171a1096U, 0xf8e4e010ecabcc0fU, 0xe8d4f114c9fd4b06U,
  0x1cf0d9ecf4363326U, 0x283e1218fbef09a9U, 0x1029fc04302edb1dU, 0xe5de545f15ef940aU,
  0x985c0dec5b5fdc1cU, 0xf521cfc811fce011U, 0xf30708e31bfd08e6U, 0x3def0dfc1f941113U,
  0xe0b4f10040e9b61fU, 0xcff31c40abf21b1dU, 0x7fe3c91403f157fbU, 0xb2c51f00ebfcf2a9U,
  0x418c03f1f00fe2dU, 0xf917bcfd1c07eaf5U, 0xd3f8f7c122c8d803U, 0xea3ffae7d5e1ecd3U,
  0xfcfaf519221b1421U, 0x13101efdede515f9U, 0xdf35d51a810af6f7U, 0xfb021ffbf6fb1301U,
  0xe1cfb0acf19de09U, 0xc8fae9deefe624fbU, 0x8fe0a18d8fb0d12U, 0xeeffe40ee2f157deU,
  0x11ec26fa3614f8e4U, 0x72f8ef08180600ebU, 0xde2ada150d0dfdfeU, 0xffefc212ffff14abU,
  0xfae7161c12fefacfU, 0xfff9f915ccc10333U, 0x14d81eedfe3d064aU, 0x91705f5f5f616f8U,
  0xf4c0e4f0503f9eeU, 0xfb17c00b23fb292fU, 0x1501f5fad3deeebcU, 0x1dfa0816011ee6fdU,
  0x448150ed041b0ce8U, 0xf626137bbebefbd9U, 0xfee52ce8c8e12d0dU, 0xf202154102dcf8faU,
  0xf71ff105fb1714f3U, 0x2fdcecf8f10cf5e1U, 0x2dd21ee61eb2aebU, 0x810efee1d091af3U,
  0x1615fff207fcf2feU, 0xf2f30befe300fcfdU, 0x2efeecf2160df6f7U, 0x33fa81e3360cb328U,
  0x1fcf405520b0804U, 0xd202f10a03d915fdU, 0x17f423dcff080df9U, 0xff106c1fbfc40aeU,
  0xfee80c54192ee6daU, 0xc837f411f6d61ef4U, 0x9bdee00bfffb2740U, 0xef251cfd0803dfa0U,
  0x5f306290f0053dfU, 0xf253bd454b21f641U, 0x16f31f0c032b35e9U, 0x8117130f0706e703U,
  0xd2cf2b3509afe70bU, 0x459de27e701ed56U, 0x7eed72718ecfbe9U, 0x1df7001ed1f311e1U,
  0xe5b9c4e80e1500b0U, 0x9f10fc1f0943f4b1U, 0xe0fbef0defd011d8U, 0x109fef21017e5beU,
  0xd0a17cff5ba5007U, 0x129b351cf61bea7fU, 0x1c261d080c9c1ee9U, 0x223b16cf04011c05U,
  0xa2e4bc3214e5fb20U, 0x9d9bc20280cdf10U, 0xf31524102d2116ddU, 0xc0fa0b04daf8b4d9U,
  0xf02ef327e2fc11e9U, 0xd6bd06f00ceefca6U, 0xa63ef0ec12fb01f6U, 0x3a117fa06151cfaU,
  0x1f35d2e71c01ba1dU, 0x26ff2efb81f61232U, 0xfc29ff062aedf623U, 0x240715e9f8f5f803U,
  0x905f7e1de0005d8U, 0xe0dfd6f145f828fcU, 0xf301fddb4f1e3ad5U, 0x3d6affffdbddU,
  0xfffff598ffffb6e0U, 0x29a1ffffd7ebU, 0xffff2a8f00006fdbU, 0x4092fffffc23U,
  0x3dac00005f80U, 0x3535ffffd508U, 0x2c31ffffe697U, 0xbce0e1d481fe5be3U,
  0x32f9c6144d0310edU, 0xab1ce3e2fcc016dbU, 0x812a030313c4363eU, 0xc1c8132c26db0a01U,
  0x17b960f00afdde7fU, 0xfef8e3089005bd2fU, 0x7f142ef82c4bfd72U, 0x29feed07290e32afU,
  0x1cf0f381ea150903U, 0x4db2501605754303U, 0x1581d224dfe749c9U, 0x63d501288179c624U,
  0x52eb5b04dd379ab4U, 0xce040d5ec5e57525U, 0x2e3fe91c14e4607fU, 0xb712c817ab0aab0cU,
  0x3b4f7f11f8483c19U, 0xc328f82a7ffbe008U, 0xf8f9c0faeb1f6fc0U, 0x24f6000a81d217f8U,
  0x1dfed5f0e512de20U, 0xc655e251ed171102U, 0xe1bb7f001efe26acU, 0x171bb01ff183ee45U,
  0x20fe7fd9d0b23a10U, 0x12fd81040ae707efU, 0xb0af20cff07f404U, 0xa381063ee05fe619U,
  0xe0eec308121cd4edU, 0x3a7f02ffceee15abU, 0x240560be44d2ddbU, 0x4a5913015f7f3e0eU,
  0xae090a0ff8b70ea4U, 0xfc4e8b71ef191d8U, 0xda3e29fdd20fe181U, 0xfc15052a42062a04U,
  0x15387f0ee1e22a47U, 0xbb9b146c0c29e70bU, 0xd900d2d881dab099U, 0x180c810adec4dc62U,
  0xff17061cf29323ccU, 0x68f6fef0ee4de84aU, 0x57317fff234c9af8U, 0x435905ca7fd929e8U,
  0xff1e08fe29f323f9U, 0x36f3f03ca16efe46U, 0x1d81f004e903110eU, 0xec1a6a03ef0b2881U,
  0xe43a11b3f76314fdU, 0xce41090c150d181aU, 0x140ce3f5edf381fcU, 0xddd9f6cf06fefcdbU,
  0x35dd7f0adc02dc91U, 0xe0efe32642071dfbU, 0xdf77f0700e60638U, 0x251ff87f3e3a4610U,
  0xdd2f5d13deceeba5U, 0x2509ff1e1008fe00U, 0x5eef1ff81f1f4ecU, 0x812aedd949cf51ecU,
  0x564e2539fdef38d4U, 0x99d0fffbbcf4ebdbU, 0x1504d2e081f44e15U, 0x7f325343bf6b281U,
  0x463d02492d9ad5fdU, 0xaff6a4f9d7d8f4U, 0x1f7f8b1ed00f1141U, 0x52d1112c1841f930U,
  0x7feff90d1543d1adU, 0x871eebf412b536d6U, 0x8152f90602ac5e58U, 0x1a7a18257f0d29dfU,
  0xcdbd17f5f5e52bf4U, 0xcfdbfcffbc0bf704U, 0xdd3d8102f701f5b4U, 0xda1fff7fcff65a2aU,
  0xe2de409fdf04a71U, 0x22d408f181f73fe4U, 0x1d2c490deee7b82eU, 0xd9faf0fda213e600U,
  0xbd5b89fbe4f5ff81U, 0xf713df02efd4eff7U, 0x211c0b81f8d30fe3U, 0xcceccdb5ece2577fU,
  0x906330c3cc541604U, 0xdb73ec40fcb370f4U, 0xc9b2811cfcd25836U, 0x81a80237da08f3e9U,
  0xc242ddfd050cf7eeU, 0xb719b819d8812df6U, 0xeb34e81ab4041e09U, 0xe2150cf3a6edff08U,
  0xdf4481f60e09e989U, 0x10e6f27ff0183016U, 0xe5710105150028caU, 0xec0b104122eab581U,
  0x334d083d2994efffU, 0x1f2fff7f51640c0fU, 0xc2147c0eafd9cd81U, 0xf3d7811cf4a4ec1dU,
  0xbf9ef24d6fce7ecU, 0x1801041c0c2b2607U, 0x58e88e0c8d063b81U, 0x2116ff2e33003403U,
  0x163f7f24cbe45544U, 0xfeaff7a4eeebcdf9U, 0x117c811ec50f1631U, 0xd289527f09d2f139U,
  0xd8f1d301b2def9aeU, 0x81bcd8260205f830U, 0xf913e5fa0ac5b8dcU, 0x43a3e7faeb180eeeU,
  0x8fc051cf2fd7ff6U, 0x5b7fcbc8eacf12ffU, 0xf77d181efdf31ce4U, 0x32de665c21811730U,
  0xeaff19dd08fed897U, 0x7d7fbeb3156e459bU, 0x4a0b10ef1e0715U, 0xfeea8113feccfa07U,
  0x703f01ce9fdeff7U, 0x61a154e7f1af815U, 0xcb2216f4290fff9dU, 0x38bdf7e3d2127fd1U,
  0xdac9a4f9caadc3ebU, 0xdeb90cb07fe41bd6U, 0x2728421adae8e7c2U, 0x3ef20a0329030209U,
  0xfd3281f5d4f0031aU, 0xde3ddc298109d9f0U, 0xd11501f2920a2ff6U, 0x6df90303e942ec20U,
  0x4b127f02212bb707U, 0x22c5fdf381f03400U, 0x234a501efae4a051U, 0xfa050b0c7f24e2U,
  0xe056ed0dddededd8U, 0xdae4dca8fdf0507fU, 0x9e453ac0c75c1404U, 0x7f351ae5f6ca0728U,
  0x13e53f0c07dd5bdfU, 0x1502b1040af9fd08U, 0x312afe8105b111ddU, 0x5c1c0c090d81140bU,
  0x6ff0f16f808e7d8U, 0x81b4dc2f042916d0U, 0xf028d20eee25b614U, 0x55adf9137f262301U,
  0xa12587152dcf10baU, 0xee14f80d0dc91df3U, 0x1d87f0dfdf4197bU, 0x3df4f30212fef200U,
  0xd08fafb81ece210U, 0x635214cd7fef1df3U, 0xf4f6eff225f8290bU, 0x2bdcdf31891d0304U,
  0x2f157f1bda08ce19U, 0xaf18faabc6b3a2eeU, 0xcd2e2912381b127fU, 0x9612d412987ff9d2U,
  0xce60712287d035b9U, 0x37f284461b812dd1U, 0xfc0a031afe40d4fbU, 0x11ec8f0d10fbf77fU,
  0x19fb066afd9af6eeU, 0x812eeedca9884fdaU, 0x6935351082d23444U, 0x8141e405dc4621ddU,
  0xfd433620c2f430d4U, 0xfbe5e1b4851b7fabU, 0xe4a1f50618bafcc7U, 0x187fe1e200de06f9U,
  0xee551e0709ffe500U, 0xf034dd098703d8e9U, 0xd80a03ee81f613fbU, 0x2202841af62ee469U,
  0x4f222bc88128c7U, 0xf8e7f31accd6e918U, 0xd41df97fbc2206cfU, 0x57bcfc43c127caffU,
  0x811579f4e7daaa3dU, 0x9fe2f013d6e9f8d4U, 0xb03f1e181f73d08U, 0x10d8100102815e9U,
  0x613e703f201e801U, 0xe31c38ccf47feb27U, 0x31ffeeaedb919ebU, 0xfcf1fa1aeaf2011cU,
  0xe01fef7fc60fede0U, 0xfbbef1a322fd5b7fU, 0xb74d1bd5d459eee6U, 0xdf9fffff7f9U,
  0xa05000020f1U, 0xffffef80fffff4d1U, 0x79d000046d2U, 0xfffffa3f00000bacU,
  0xffffff12000026e0U, 0x836ffffde0eU, 0x1803000034ecU, 0x1453000035a2U,
  0xffffe891fffff157U, 0x6e800000116aU, 0x43c900004a13U, 0x3c6000003b6U,
  0xb2f00000f47U, 0xffffedb6000007faU, 0xfffff6d3000019b4U, 0x10b5fffffeffU,
  0x3b600000035U, 0x12c6000028c5U, 0x116cfffff99eU, 0x13d600002309U,
  0x298e0000125bU, 0x127900000fabU, 0x1cb400000797U, 0xffffeb5d00001136U,
  0x226ffffe83bU, 0xfffffb30ffffff0eU, 0xfffffffd0000088aU, 0xfffffc24000000d6U,
  0x274efffff185U, 0x54efffffcb4U, 0xfffff9dafffffb51U, 0x1bb4fffff31eU,
  0x6e500004fabU, 0x307fffff74fU, 0x7c1000005f0U, 0xfffffb5f000005c3U,
  0x28d500000259U, 0x4278fffffe65U, 0xfffffc4000003ae2U, 0x6fb000025b7U,
  0x597fffffe70U, 0x1ccf000036cbU, 0x5da0000111dU, 0xf48000015e8U,
  0xffffe3c5fffffed0U, 0xfffff8d700000289U, 0xfffff8d2fffff9ebU, 0x8f8151819979a34fU,
  0x668a99774b924c57U, 0x7701f397654c4781U, 0xa25a75ae5eaa6abbU, 0x9b5059634f4fa943U,
  0xb132969f81e8b260U, 0x43984293b47f50a1U, 0x55464987aab43e9bU, 0x55bad87f45b69255U,
  0x337fadb560505e81U, 0x46a5c0a594464c9cU, 0x386155485350a173U, 0x8c906ba38cc68b69U,
  0xbe888e765f815a6aU, 0x60f7db81675f59bfU, 0x8f6b7d9e649f7695U, 0x8168afcf55589a5eU,
  0xa44c1c9f4a9da27fU, 0x66815e8a9e6d65aeU, 0x615b5d81a0926395U, 0x63ad986e5c589663U,
  0x578a89a27f646a88U, 0x5b86ab8189685e28U, 0x6b67656166639fcaU, 0xc5c329fcb3ddd02cU,
  0xd8f1c52c28be2b2aU, 0x3d063dc5261e2604U, 0xc62b30d129d028c3U, 0xcb28e0f62326ca32U,
  0xde2535d82d8fd628U, 0x34d329cfd41024ceU, 0x1d2321dcd7c127dfU, 0x2bd8b63621f7d53cU,
  0x27fcbdd23c2c39d0U, 0x1ecae6c5ca3b2b3eU, 0x452730282a2ad4c2U, 0x812a68859e7f9059U,
  0x7f0a8b796616645fU, 0x92b3d12e7b6560edU, 0x926b78a471a06cabU, 0x93697f7f61679a4bU,
  0x985381918a9f96e3U, 0x628e588d9e6865b0U, 0x70625c859f995897U, 0x629ebb785aa38c6fU,
  0x56625698e3666e89U, 0x6897a11b8b556481U, 0x5872655e6969857fU, 0x904e7fab81a7817fU,
  0xa646817f7f1b7f7fU, 0x818fb0477f7f7f74U, 0x817f7f817f817f81U, 0x8b7fb8b87f7f817fU,
  0x817f4681468181cdU, 0x7f917f8181597f81U, 0x7f7f7f8f81817f81U, 0x7f81816c7f7f817fU,
  0x7faf7f81cc7f7f8eU, 0x7f818114817f7f37U, 0x7f7f7f7f7f7f81a6U, 0xb92c38f3a4b6b238U,
  0xcd3bcb3d380f3732U, 0xcace7f233334365fU, 0xb72936c137cd2fbaU, 0xb930ccb93137c248U,
  0xcf394dc154acd4e7U, 0x39ce36becb143094U, 0x2a3a34e0c7b638d4U, 0x35c9ad2f2ff7cb48U,
  0x35ee42d0e63940c1U, 0x2ec2d60fcd423949U, 0x453237383236cdb4U, 0xbd3822d1c33ebe29U,
  0x3a46bb3b37433023U, 0xa46e53c3d282c13U, 0xcb2a31d131d328d0U, 0xb72f3c4d2432ce21U,
  0xd02ab7c9a5a9bcd3U, 0x37bf21c4d70e34d8U, 0x2c2b21e0d0c428ddU, 0x2ad0eb2f27c9d03bU,
  0x222400ddc32c38c2U, 0x2dd9d951d22e33b0U, 0x2c2f34263240cb4aU, 0xaa762edca1ca9b3eU,
  0xd67fbe484662472cU, 0x107fd13f4633376fU, 0xbd2a2fbf38bb2dbcU, 0xc032e3c7333fc236U,
  0xc84030a41fb7b9b8U, 0x48b82eb8cc0f41b0U, 0x353b34e0c9ac38d1U, 0x3dcaca2a393cc14cU,
  0x32e505d0b1393bbcU, 0x35d5c95fd0433d1dU, 0x32373f393a4dc6ccU, 0xd72118f8d8f3cf12U,
  0xea49eb1c20331f15U, 0xfe31450e17191939U, 0xdf0effdf1ce10de7U, 0xdb12e6df111ce71aU,
  0xeb2129dc1adee8eaU, 0x20cd14d8e2ff1aceU, 0xf1b1af1e4cd1cf3U, 0x1ae2e01114f7f621U,
  0x13f304f3dd1a23dfU, 0x15f5f228ef1e2026U, 0x1e17231e141fe6e1U, 0xc96200000a05U,
  0x92cbfffffc3bU, 0x7520000dc67U, 0x743c0000b895U, 0x50e000004e6U,
  0xfffffe7300000918U, 0x11c1a0000004bU, 0xffffff9a00003513U, 0x86700002197U,
  0x330000020dU, 0xfffffd17fffffd56U, 0xfffffb98000001e1U, 0x7d030000d33bU,
  0x172f0002e693U, 0xfffffb6c000083fdU, 0x480a00000453U, 0xaa64000000a7U,
  0x182ffffff9dU, 0x13fffff35eU, 0xed11fffffe7cU, 0xf92d00000021U,
  0xfffff83400009e49U, 0xfffff9ad0000eb17U, 0x19ce60000052dU, 0x18c30000bf58U,
  0xef310000009dU, 0xffffffc200006ff4U, 0xd2f100009954U, 0x17a90001582dU,
  0x166db000071a7U, 0x5f8600008f87U, 0xfffffe850000022fU, 0xbe9b00001160U,
  0x329fffff556U, 0xb68900005b60U, 0xaf0000140eaU, 0x50210000d719U,
  0xffffff2a000009a8U, 0xfffffc7b0000e309U, 0xa99ffffffe8U, 0x1a7fffffa3cU,
  0x179c70000029cU, 0x227b5fffffc58U, 0x2ac0000e11bU, 0x13a2700000048U,
  0xffffffec000005c5U, 0x2145000007b1U, 0xffffffc50000115dU, 0xfa27d906e7d02d2dU,
  0xedb9eb13f6ef1e09U, 0x62e200319c501f6U, 0xc713c0b79f423b2cU, 0xceebdc2cc5b0c581U,
  0x39a51324c2facfdaU, 0x96f0322560e34240U, 0xfd874e14d1c65864U, 0x20f4fbe4342419cbU,
  0x29193937eb03cdfcU, 0xd0cbce0f1bf40a05U, 0xfcb2e4024ef81eefU, 0xdf523e2e905f4e0U,
  0xec3214f9ec523d39U, 0x3e43e64e0928ffe7U, 0x30e1fe032bff05dcU, 0xba152418a6d80211U,
  0x32e2eaefe5f30931U, 0xfdccfcbfe80be7eaU, 0x10f39e8f5c4d126U, 0xef7effc10e8fe08U,
  0xe11142427fcdeff9U, 0xfa01d7394e06f410U, 0x5fb2713bdcbecf5U, 0xeefd0f0feefb0805U,
  0xf8fd090bfa04c602U, 0xfaf6fef902fcd8e1U, 0xde080a00ef1c07U, 0xd2160103df15f4eaU,
  0xb1201fc01fdf9f4U, 0xeee0d0001fbf60eU, 0xfdfbdafa3fef0410U, 0xf81f02ec7ff9e4fdU,
  0xf0af9fbf6d10de4U, 0x3c04e6fbdaeb1ff9U, 0x200f0dbfd08fcf3U, 0xfdfefae2071106f0U,
  0x1303fb2afff7fbf8U, 0x1e8f7040d070515U, 0x17e516f31fea08c8U, 0x1a011105f4fefd81U,
  0x410eee419bcdc0bU, 0xf7000df0efec0e3eU, 0xf50bd804f706f70fU, 0x4e26c00dd5f003fdU,
  0x13e9e4e40ae45a19U, 0xa0eea22df1bfaU, 0x5ec9f224e4f2180dU, 0x10dc130fd60805fdU,
  0x507190bc5fd1b7fU, 0xf8010a0c10e369dbU, 0xf20d1914c41f0131U, 0x1aedfd040338dff4U,
  0x303119e3f8d1eef4U, 0x5eef4150207f70bU, 0xf3de1ff462d81c0aU, 0x37ded5e5df0df413U,
  0x80b04100029ffe7U, 0xff0166050609e10fU, 0x47121ec20ff1f10bU, 0x411cf61923f51eebU,
  0xf3f9fdfe59f81fafU, 0x40d000239c70336U, 0xf030f6f8d79f7f3cU, 0xa99e9efad1461f9U,
  0xcafd00d6030506ebU, 0x15ec8e40c6f2010fU, 0x92a401337f7f719U, 0x6130107d708faf1U,
  0xd8040a05fe2ffadfU, 0xf010adf3253de801U, 0x12f7f2e706080407U, 0x30400e7f80810f4U,
  0xbf09a0007f9071dU, 0xfbfe0a17fbfc2df4U, 0xf70f08fbe902fb3bU, 0xef3fe07f1f90cf7U,
  0xeaf71213fe0ff0f9U, 0xb04e509034e0f04U, 0xeff603b01b1a150eU, 0x24ee16ee0508f0f6U,
  0xfe010203f5f7e9efU, 0x12f50700fa7f430bU, 0xe30bca4d0b08d825U, 0xe0817e300011f07U,
  0x12fb090a0d040e28U, 0xf9f30ae4f6f510f5U, 0xf411ff1418d0fe9bU, 0x12db0903bf300e14U,
  0x2c191417000afdfbU, 0xc8fbe9fec11ee8f1U, 0x207fef3fdfbf6ddU, 0xf3f0fdf6f40a0109U,
  0xf306f30feff3f7f2U, 0xdfafd04d5815f08U, 0xf300dbe900e6fef0U, 0xddadaef09fce827U,
  0xf826110d340e0bedU, 0xf705ed07f90e3308U, 0x13d5e41ae51403d1U, 0xf10906f8300520f3U,
  0x8154fcd9f2f20226U, 0xfc11ddf94809e727U, 0x151f27040cfadcd7U, 0x389f2f11cf807faU,
  0xcc0a06080e10d8e0U, 0x1e10dafb10b050f5U, 0x4213e9c2f261f6f1U, 0xfb7fd3f8dfe9db2aU,
  0xcc1d0914e816e959U, 0x3210040fbc08285eU, 0x40473441f02a3800U, 0xd303e8062130243dU,
  0xd307dd100afa2436U, 0x174dd9f3080ac7daU, 0x10e840f02432ddf1U, 0x54e5de160402f31fU,
  0xcde8ffac1226db05U, 0x47f62cecfeda0ed8U, 0xb35e9f6c9e0e9f6U, 0xfb9ae909e10b01f5U,
  0xeecf1d02f39d14fdU, 0xcebdbbdde12013ffU, 0x561df2ccba01fb1eU, 0x330b0809dcd5efeeU,
  0xf0f4befd011a0cf6U, 0x191611d110c32ff5U, 0xd4d59a2521f0f2d3U, 0x12e912bdaeb40ed0U,
  0x3ddbb30cf181dedfU, 0xcef4d0a87b052bcbU, 0xb307e5eb9da9dcf8U, 0xeef509faf00ef009U,
  0x10cf3f0c7060ce2U, 0xa08fc0401deccf5U, 0x100025932e0cfdU, 0xf22b03f90a0ee0f8U,
  0xf37f010f0306f115U, 0xfffb0f12da11e00cU, 0xeb19eef3f3021becU, 0xd041409d900eb0eU,
  0x10000fb141df902U, 0x5f8e4fa2efe0bf6U, 0xfcfaf31201cb0bfbU, 0xdcf1050518eee707U,
  0xf209f01a050408c5U, 0xc04ee01fb07f9e6U, 0xfd7f13fa0b10fdf2U, 0xfc0cf4f7499ff600U,
  0x14ef02f807e9fbfdU, 0x6e60b0309fc0ef5U, 0x39fcf6f43feefe20U, 0xf209e2ebeef311f8U,
  0x2f90300fbf60eddU, 0xed00db11c9e05800U, 0x1201d8e001e70deaU, 0xfe03dd17141c2bedU,
  0x6ed14f629ff162dU, 0x810f7fc1bfc25d9U, 0xd46725e8b3cfeb10U, 0xfe912fe06840cddU,
  0x9c19f5dc0a08d216U, 0xecf5edffc2ba10fbU, 0xe4e6ea28d9e9171eU, 0xb0221100ef1aed6U,
  0xdbf90c0d019c0d29U, 0x74e7c91adaed8123U, 0xbbe7281422f0f515U, 0xe203e9f9ed00f605U,
  0xaf7121522071f13U, 0x2040b03f4178107U, 0xf4f3040a2f2a14f1U, 0x234a0804ff0b17e3U,
  0xe5dd1403011cfefeU, 0xe80906f0ec09f616U, 0xe1031bfc1cfaf105U, 0x1af22cdcb90df905U,
  0xe4fd05f5f50302f4U, 0x2c113cfee8ec1a00U, 0xd9f100e204fd0effU, 0xc80111fcdd06fe21U,
  0xc05f8fb17fc112fU, 0xf028f2f9f5d10eU, 0x1068ed00f00ae803U, 0xec51fd1acf4b1a3bU,
  0xc11e05fd1003f3f8U, 0x708e618efd301e1U, 0x5ef2f411f60011fbU, 0x2b15eb0a522c3e14U,
  0x1b10f132effa3507U, 0x81fa05080212f511U, 0x9e6100df1fa361aU, 0x47420fd09191a40U,
  0x1e45fae83ff90ff2U, 0x15d60c1b030de508U, 0x17b1f9e92ecd0202U, 0x18db2d4104dfc2deU,
  0xa7ff7ed01fa0228U, 0x250159f3f90a3afcU, 0xc6f1f5ff26f909d9U, 0xe6e1f5f4b902f7f0U,
  0x3ec9d22617ce06f6U, 0xcef9fd0df2020104U, 0xde060cffd30be81eU, 0xf80c0f0b110006f8U,
  0xed0416dbfd03fae0U, 0xfcfc0304e30ec2feU, 0xf01efa0522e0d34cU, 0xec010af0ef090fa9U,
  0x1bf8fe420acff609U, 0xeb150aeac2f6ef38U, 0x1825f30729fcfbb9U, 0x16a7ccdd2d000d1aU,
  0xe40bfaf5f3f193f9U, 0xff08dbffca7fc400U, 0x61022ee205e32404U, 0xeef81dd92b29fdf1U,
  0x27b0ffd00d0738f6U, 0x163f06f87f1d2376U, 0xc9c9c5ea2bf2b7f5U, 0x93e47e5e7f7dc01U,
  0xd02508f409000e54U, 0xc0a00ff4f209f0f9U, 0xa29c60444d71af9U, 0xe75704d31bfe05f8U,
  0x272a463a2fe24900U, 0xbef1ecfe056bf116U, 0xfd2b10f63403e212U, 0x71f57f7e4f9aecbU,
  0xf11f7f4f0f8cd71U, 0x1e0502022bbdc6ecU, 0x15d00a080ecb0bd2U, 0x4f4e2e86c2b4e25U,
  0x28f1f4fe0fe9f4e4U, 0xe3e1812aff0801e7U, 0xc91bc4070ff64cf6U, 0x2d5e30cf303d801U,
  0x72fa043e0325eef4U, 0x2c3f10cdcfff40bU, 0x1b021c19e5c10d03U, 0x80cf6e81a0303f9U,
  0xfc0c0c28f10aebccU, 0x4fef8100f001905U, 0xfdc105f70ef20005U, 0xefe906fc13e2ea5cU,
  0x13fcf8fb0329c910U, 0xcef91af6fce804cdU, 0x51cf51639f108fdU, 0x7fe629ec13f30e0bU,
  0xf3fae80e001cecU, 0xe0402f3041b08f4U, 0xc0bd11df010f410cU, 0x1ac600f7ebcbf159U,
  0xc90ed4071fea1b77U, 0xe0e3cf00c6cffed3U, 0xf0e6ae3cf515c720U, 0x5cbdcf632fa0bfaU,
  0x31edfaefcf17f1e0U, 0xf82cf1204431f224U, 0xf4ca37e3441d9b81U, 0x2d590fe9d5def3ebU,
  0xfc1cf346e0195137U, 0x35459f11c5f1bd0cU, 0x5d02b6d1e0a14dcU, 0xf2706eb00f517ddU,
  0xfa8116f0e7f322f1U, 0xdd0320e81f1d1d89U, 0x18fed1343036f5efU, 0xe3ff1f5ec031af3U,
  0xffec040cbdff11f8U, 0xde9e4d70b08a913U, 0x650c501f3dc01e9U, 0x61b09d4ea2ffbe7U,
  0x3f10e3a0df01906U, 0x3c01f8f63e0405e9U, 0xe171f06f10cf0faU, 0xf63516f8e7f6f6aeU,
  0xee1704fcb408d3f5U, 0x18061301f8e118ebU, 0xe71b21bdaee997feU, 0xe0dedc0c19d5f1d2U,
  0x81ad01f301f7e9e4U, 0xc8f8e423f21a32fdU, 0xe5d8e6fc17edaae9U, 0x53703253013f706U,
  0x2df401eae7040cf5U, 0xd630dbf812f819ffU, 0xe1f6f1e115bcfb00U, 0xffffca1effff9207U,
  0x1f6d000013d7U, 0xffffa7feffff1e2eU, 0xde17ffffc548U, 0xffff56ed00008781U,
  0x31ba0000a33cU, 0xb35e00000fa7U, 0xffff9875000029a9U, 0xd312ffffcc1dU,
  0x3c16fffff5d5U, 0xffffb99e00001bc4U, 0xf120ffffc9cdU, 0x39002b5eedc24602U,
  0x322303137f1fe2f7U, 0xe3e108e3d23810b0U, 0x525d30909f71af9U, 0xe7d128fc040781ffU,
  0x89af70af612f9f0U, 0x1e279e1ee1c1c624U, 0xee961d32b03e366U, 0x81fa9718518a2b11U,
  0x7fa4ecc661fcba26U, 0xfb170e0710f9e629U, 0xdf4e8f40410c2fdU, 0x42622641d35b3426U,
  0xd8259a7f0d26f651U, 0x33cbbf2904200e28U, 0xdc35f891e77ff5f8U, 0x475815dbd4e5cf41U,
  0xfce10de1371a1fdbU, 0x8e7f1041fcd7dd0eU, 0x39fc34e1f0ebbfdbU, 0xd915e25811f6670cU,
  0x5140530e3b0e9a5U, 0x3598356e92e27244U, 0x765e5159da43081U, 0xfd4ff95f0f9c85f6U,
  0x2ea87ff846e92f48U, 0x2648adf9e981c310U, 0xde05f9327feded1aU, 0xddecb10e7c2112fU,
  0xfc26e8c415f63016U, 0x17078111dfa1ec19U, 0xd4fa06e58e102c27U, 0xf73edd0308042bffU,
  0x9118015e81f7a301U, 0xf5083ddcf41be206U, 0xa92eb8e60ac5600eU, 0x5b10342c084ccff8U,
  0x2cfed881ea2c9ef2U, 0xe00108f7b1c605d0U, 0xbd500e500f7840dU, 0xf13dcbdc813c0dd4U,
  0x1e24efecfad606ebU, 0xea24e419fe0145cdU, 0xf6f233fe07ec8113U, 0x6e3fbec03baf5d6U,
  0x29fb26050a39c0c5U, 0x4569dffdf54ee64dU, 0xd07e162500c53b81U, 0xec00f30d0d0cf9f5U,
  0xf2d227ca3df3551bU, 0xec02f9eee87fe225U, 0x12e8ec1110e61bf8U, 0xe7aa81ce47eae9f6U,
  0xdb10f23fd303000fU, 0x3e142bfdf05ea520U, 0x2c06c797c5fd03ffU, 0x1b7fd50404c2fc3eU,
  0xf124d527fbf100f5U, 0x15fd3f3d0bd3810fU, 0xa160c000306f02bU, 0x62c19c50fcf7ffeU,
  0xfc4a3bf6c119e640U, 0xd7f4be08e220173aU, 0xf1449fdfbe58141U, 0xe1f83fede0c8ade2U,
  0x41c1cc0df722f2cfU, 0x2ac66c4db95f2423U, 0xbf02d367df7f5a36U, 0x29ea8b01fb25210eU,
  0xefd90bf04dd3b81aU, 0xef97e57ff3e0b31cU, 0xc65b1bd0dceb60f7U, 0xe915cf3a12bb110cU,
  0x82ccefdd0df734faU, 0x13e5f51381e1be1cU, 0xf5085eeaf2f4c10fU, 0xfb177ffe8c4ad753U,
  0xf0f5e3e94404f716U, 0x4f2bea48b2141cb3U, 0x41ee2dd789fa1610U, 0xef81d714e6fbbaa0U,
  0x1d5ee27c5df8105U, 0xeafc69dff905e92dU, 0x831d91bb5daaea05U, 0xccf3ebfaf5b93703U,
  0x2624047f301a3e0eU, 0x1aec06f0ff00fc19U, 0x3ee0431f0711fa04U, 0x2124a7813f33adbbU,
  0x27d5f10cda072fe4U, 0x31c648d5f34a33d6U, 0xfc1cc52b59187fe0U, 0xbe4c440150415adfU,
  0xfc810a31dcf9d511U, 0x191e04f4d911f202U, 0x21b01290817340cU, 0xfa227da6f22f2de6U,
  0x177f3a14e21f003fU, 0xee222d07c1927c7U, 0xc117acde81f746e4U, 0x5cf5222d1d0c2c02U,
  0xfcde013f211887e4U, 0x977f2411de08f8fdU, 0x11f9d409fa1925e5U, 0xf6eef113f1114803U,
  0xfc27ff0b110e19fbU, 0xeef315fe1a0349f8U, 0xf3e302f5127fec03U, 0x384aebebfad00156U,
  0xd12bf108f8d120U, 0xe305812b4b1215f8U, 0xc7db7134256e04d0U, 0x2519e34420f3a9beU,
  0xecfa22dff8f081ffU, 0x3c50e7c5ca88de7fU, 0xc6f5ff01582dc221U, 0xcdca9611334c67caU,
  0xe4bf384f2d7fde9dU, 0x939c64ede19fcfcU, 0xd9422d18ffc0ad3eU, 0x90cd417f33670490U,
  0x47381d4302d69fd9U, 0x15226a5cf9f0f117U, 0xf7df0420ffc8e3fdU, 0xc502367ffdf6e2fdU,
  0x1010e09f5c8e707U, 0xafc168243266bf08U, 0x516e731daf02abaU, 0xeb280003212581dfU,
  0x1628e4edbefbd33fU, 0x20a758d1641a4b56U, 0xb64781f12d9b4decU, 0xf811d4e2092a4a35U,
  0xebf2d2232bfc95bcU, 0x1a810208c7eef217U, 0xd3e2d7f4fdc8c3e8U, 0x6051a17f3bf666feU,
  0xcf2d05e1341e001aU, 0xf2e5bfaaf33bba13U, 0x5d361e29d5b9cec2U, 0x810f35dedc012403U,
  0x89724049aaf52b0dU, 0x7fbeace175c5bcbU, 0x720ef32d5cd7f12U, 0x15f4b703ead542f9U,
  0xd138d71781fb0af2U, 0xe7df09ebfae31017U, 0xe76224a825f52b46U, 0x2707693f81148f30U,
  0x1a9cbc0fbeebe43cU, 0x8163162e17e208edU, 0x48f715d31aefebebU, 0xdd0c056a2d0d67f2U,
  0xf22794133b2adf5eU, 0xf2d4350117160db8U, 0x1481e32c06e8dbf5U, 0xddc1a6a7efd71af9U,
  0x9a4ca12b8106f7d8U, 0xd6d9010d03f41c17U, 0xde811a40bbe24e16U, 0x13f10becee35e6f0U,
  0x31f5d0d1f4031104U, 0xdc0611810030827U, 0x3078c9cb12ce381U, 0x392803c2334acaabU,
  0xf001afffd3407f4cU, 0xec8061728de8df6U, 0x19bf3ef9ddbafd22U, 0xe3ce6ec2ece58117U,
  0xc9e5c50a5225df0aU, 0xf24cf835cedc0d1eU, 0xdddc1375ee44be81U, 0x230c0915ede68b0dU,
  0x2ef77ad1af43ae5aU, 0xdfe72436152adac0U, 0xf409fb17f1ededeaU, 0x2b2d4b00da7fc627U,
  0xd0f2205ec1d591aU, 0x15a2141acfe77f29U, 0xf2fd2601c70309ddU, 0x297fe2b856db0a10U,
  0x1afad10123e72df4U, 0xf6051e1e021ae8eaU, 0xf41d524cd64a0a05U, 0xdc379c5aaf41480dU,
  0xf14f81371b7e460eU, 0x3300fc0c184292fcU, 0x3107e1810562f82aU, 0xbddc1e03d95bf2cdU,
  0x172c7fc212f201fcU, 0xf71c46eb83122535U, 0xf291ded51d2f60bU, 0x750a868709be19dbU,
  0xfdedcbdd05c0512dU, 0x18e10981f2f3bfdbU, 0xda7ff761f9a9c4eaU, 0x132f45f1ecae1354U,
  0xe310e02251bd3beU, 0x16eb8146f606ec0cU, 0xf896ea1150067ff1U, 0xe4ed1c12ae3e002aU,
  0xdafbee6f0dd403f9U, 0x68c14d47f23140eU, 0x212fed0deedbb2f0U, 0xcef8c3d281ec47faU,
  0x220b3a01152307f9U, 0x14dbff583a30ad16U, 0xf90fe31014dc7f20U, 0x5460e5dd11c35b00U,
  0xff2dc6ebfc49dbf7U, 0x41d5ee21f481b7c2U, 0x2615b040072800e7U, 0xb93006f503f14426U,
  0xfce60aec02f2d214U, 0xfb03f807f1f87ff6U, 0xc0afd0403340429U, 0xb3d952233965e2dcU,
  0x1226e042bfe315abU, 0xdf271eef042c8107U, 0xeffafd4a001645d9U, 0xdcc608187f08fb12U,
  0xf9fb0ebd19e92cU, 0x110781e7efcf12feU, 0xec27f6ed8efddafcU, 0xf6e303f905d7350cU,
  0x68ddd5c40e0b24dfU, 0x1cfee51d07fbd6ecU, 0x8e7e6819ade8cf8U, 0xe6e6fe6df347e99dU,
  0x17000f4801eb8128U, 0x18ef77f1daffa73dU, 0xe0f4053f1b0635c2U, 0x568139d4c0f7fa25U,
  0xfff9eaf3fefebafeU, 0xdf2bd0fafddbffe2U, 0x2530f8e881d28e1fU, 0xcbe3edf61513fb07U,
  0x59fe8113a990dafbU, 0xeebf36d64c2baf7aU, 0x9adbbbd04c953c28U, 0xf734c19235e201d2U,
  0x92d1559342e02581U, 0xe82006c3f8101febU, 0x512fae6061133f0U, 0x142b21b481d4d7f8U,
  0xd16ecefdfdc0d22U, 0xa2b2dfa402bf7015U, 0x52a07fb11de4ffb8U, 0x19e2f3cbc4b20dd7U,
  0xcfea14f6ec10e81aU, 0x4b55a5d519f78138U, 0xcb1410f70bf0f016U, 0xeade5837134098b2U,
  0x260e1a1a16e919e9U, 0x457f4ffdb825c62fU, 0x81750d2efff8fb04U, 0x20f105f4fe130fd0U,
  0xce2ffe5510147804U, 0x75f0dedd81b5ca45U, 0x1ed53999fb091a09U, 0xe0f6d40cfee94916U,
  0xc7eb667f4860cd82U, 0x2e3a212212bbe813U, 0x56a7d5d1231d23eU, 0xfb19f41e03e8f8eaU,
  0x14e616110bf08118U, 0xabf0bf6f700ee22U, 0xb8170af7e8c0a4ceU, 0xcbfffb7fffe15a5eU,
  0xed57ff1517c4ef00U, 0xfef403ef0df30c07U, 0xf90beafd1212fe07U, 0x581fb040f4d0ce5U,
  0x52127f3cf2e69ee7U, 0xad5d9f7b70f3b0aU, 0x82cdd131b1f27f2U, 0xa2f2ad8fde7f1902U,
  0x27a2c8e4c4eace58U, 0x1b0bfd1ad6f625f7U, 0xf3d0ebf72a45d7bdU, 0xebb90ecf5cdf0b28U,
  0x813ae92fedf6e040U, 0xcd0ffc1f0e9f2f2fU, 0x170c12f2a403df41U, 0xfe83c6fa81e1a925U,
  0xf9cb27e95025ea21U, 0xba10cbc840fed0feU, 0x101713d4000a7f0aU, 0x7cdeffc067f5f4f2U,
  0xd1ce62c23ea1142U, 0x5bdcec100bf681daU, 0x729e9aeb08f36c4bU, 0xce26f7e02c20bb2cU,
  0xd3c7d0ff1081e316U, 0x3b2eaf1ceaabb21fU, 0xf4c644da25f8c451U, 0x8121991957d22217U,
  0x188193c3eedb3ef3U, 0xab0cbcc4d12859a1U, 0x24053ad3ef19342aU, 0x36ef4b57f6e40dfdU,
  0x3e1dbcd7f0f33f4U, 0xf44302021809f91eU, 0x280182d4ffe03c12U, 0xd9eeb5f12468b11cU,
  0x7a815a36bfb86733U, 0x71fad18c59c133cfU, 0x3bf12b0c36abe973U, 0x92ef9e5f11881b8U,
  0xb67f0e30ee012ffdU, 0x171af20cfdfc07c3U, 0xea101726e310580cU, 0xd0f58cc396ed74aU,
  0x39d31c5c58d618ccU, 0x81aac20a22d19d2eU, 0x1bf8c0e9f8f4010cU, 0xed37ee1a81fc21eeU,
  0xd9010c01000f1ffdU, 0xf5f42f21f012c801U, 0x17faf90cffffe9fbU, 0x1a2739e9f27fde18U,
  0xef22cf46db21fdc5U, 0xde401411ca8128U, 0xfc053fe9e63fec2aU, 0xf50ed0c0c2b45426U,
  0xb7ee053559fff22fU, 0xbddf32028814ffeU, 0x210ff17f3e4020bU, 0x6811ff53318ef12U,
  0x32e7e615d6fc220fU, 0xe381f2e807daf905U, 0x1be45ea90df5cddcU, 0xf20b0bf4f6ff1112U,
  0x18e91c331181dde6U, 0xc52ef2361701e3d4U, 0xed38fb0df0d4f51eU, 0xe181462ffa3ba2a8U,
  0xff01f314e11246fdU, 0x204c4fbae653b62aU, 0xe6ec301f08fbf7fdU, 0x101c1013d6fa1ae9U,
  0x5431416ff7fbafdU, 0x4fbe804df0105c8U, 0xc7c70fc6600a1a23U, 0x810fe2c424eaf839U,
  0xd9c1aaae4819a08U, 0xe745aa16cb28d104U, 0xe572f8ebe5c93de1U, 0x10c51adef33cfb2aU,
  0xe21081d61d09e8edU, 0x16f9152bc60c2cd2U, 0xddff13ea0ade6d02U, 0x4e5fe140de046fcU,
  0x1a8116f7233101f6U, 0xe016151308bbd22aU, 0xffbaefbd040140f3U, 0x7b16f9f635f7d081U,
  0xe68101e7f6d4f3ffU, 0xcdf3fc4f8f2fbe2U, 0xf4010edff7f20305U, 0x2f17ee001220c2f0U,
  0x3badf98191f490f2U, 0x2b902df0237fdbfU, 0xfff617ee07e6d21cU, 0xeef32a070be37fecU,
  0x26f0f106f049ec39U, 0x7f880bc339fee84fU, 0xe62de90a2dfdab24U, 0x3df334180708a1e8U,
  0x2c153729cd5f3b52U, 0xe632db7ffb2c2155U, 0x43d09f29df1310eeU, 0x1b7f0fed270f0207U,
  0x311b63100f6070cU, 0xfa06123705fd0305U, 0xe88105f9f3ddfa02U, 0xfdeb34a908ff11d2U,
  0x9ff08dfff060300U, 0x32c5fa841a57edf9U, 0xe7dfa8351a6d0081U, 0xd4b2403c6c43ffcU,
  0x8f30036260b162bU, 0x6314be50dff3529U, 0xd9ef21742c8122e7U, 0xf225ec12060926edU,
  0x14ed2f0a13f681feU, 0x10f5fefaf493eafdU, 0xc80cedbfe77f4efcU, 0xde0e0cedbf1e249U,
  0x1ad1fe0afcd908c2U, 0x2b2ae81382ec32d7U, 0x5c11d1bef2e81fbU, 0xc6c64849d1edbdb9U,
  0xea0d040e0ae9bffbU, 0x1d37487f49d8f2eeU, 0x71be8ef2136f01eU, 0xc2ca59ec38461581U,
  0x221cbc1d9812d8eaU, 0x620179e599cfca02U, 0x2434d205e1d2fa6aU, 0x3120efe1d13a334U,
  0xc52281492c5455f9U, 0xd225d354ff4406ffU, 0x48720d81ed1b442aU, 0x2df0dbe91bdb9aeeU,
  0x1d44f1d0afff200U, 0xd2f7cf7ff91ff1U, 0x614f90bed0fecf6U, 0xec0a58cfff172101U,
  0xf68fdd819ffec37fU, 0x301ad13096c6f096U, 0x2ce4ed120dd1d201U, 0xa81f322a81044d2U,
  0x421ff14042004fcU, 0xdea8720ecca1dffU, 0xe21eebfc811b12f9U, 0xa33e3f7f0c914d2U,
  0x442a4629e458bb13U, 0xcb288152ef20002bU, 0xea12d92514350a15U, 0xf63be51fd3740b16U,
  0x2f056bebf781d811U, 0xf69eff2eed4ed24U, 0x367f05041c11ef06U, 0xf81cad1dfe051311U,
  0xf90d061f0d01f301U, 0x32eaf5f9e726f554U, 0xf01fb581881a91edU, 0x3f1c0508b1bd0fc3U,
  0xaa1b60f6baca3ffeU, 0xf92d5542b640076dU, 0xfdf7d4816321aa32U, 0x23800002143U,
  0x1e04000047eeU, 0x29b1000012d7U, 0x8be00001b1cU, 0x1a270000680aU,
  0xfffffe3800002fb1U, 0x3ce2fffff16eU, 0x30b100000faeU, 0x24f100002d24U,
  0x2594000023b8U, 0x6b0000276cU, 0xfffff8b900000fe5U, 0x1cfa00002990U,
  0x207700004319U, 0x4d1100002255U, 0xfffff826000005afU, 0x4a5d0000032fU,
  0x2815000013e2U, 0x2de0000085f8U, 0x2f70000049f1U, 0x220fffffe7b3U,
  0x7964000021ddU, 0x2d90000008faU, 0x3ff2000021d8U, 0x1c6a000030cdU,
  0x256200001effU, 0x4be000011cfU, 0xffffffa500003165U, 0x46a6ffffe742U,
  0x4fc80000611dU, 0xffffff6300001833U, 0x261a00002131U, 0x2ade00001b7aU,
  0x25400000482aU, 0x16b1000070c4U, 0xd23000024b9U, 0x360c0000401cU,
  0x191f0000361bU, 0x3e2200003172U, 0x2b3500002de5U, 0xf2cfffff3c0U,
  0xffffe85d00002152U, 0x1ca200004133U, 0x302300000d66U, 0xfffff76e000010d4U,
  0xdc400001051U, 0x2ade00001c1fU, 0xfdd200002568U, 0xffffd1610000003dU,
  0x17240000261cU, 0xfffffe1800002470U, 0x13e800003064U, 0x2d5300001d31U,
  0x36a4fffff827U, 0x143cfffffd22U, 0xfffff175ffffff77U, 0x31f7fffff0e3U,
  0x824b0000290cU, 0x2d6f00003546U, 0x1ea2000022cbU, 0x1b7000038ffU,
  0x160200000343U, 0x3f4800001cd8U, 0xd1b00000e14U, 0xfffff659fffffe7eU,
  0x2c2bfffff8baU, 0xec000003792U, 0x220f00002016U, 0x11f500000e94U,
  0x59fffffe957U, 0x18cc00003be6U, 0x27b0000056beU, 0x912f2efa05067e07U,
  0xc0307f7130c0512U, 0x651ff3bd15131507U, 0xfffdfe03de070debU, 0x12eb010b10ec02f5U,
  0x1011fbf90b100e2fU, 0xa2fcc1f51229ec0dU, 0x4fb02e9151c0ef5U, 0xe4e6d9f205ffd2ccU,
  0xfb81f6f3ec0b0718U, 0xe606e1fd000cf7eeU, 0x22071000dbb4fcf8U, 0xe51c06241a141f04U,
  0x10fcf9e524a40ab2U, 0xc0f0f1106fdcd04U, 0x81fa050b0e1f0b0dU, 0x40cdfa130b40de49U,
  0x1e0c0b150314df2dU, 0x81d9a7d197ea7fe7U, 0x7f117f06217fe0d0U, 0x3a1217817f7f04e0U,
  0x2bf269c8b3e67f05U, 0x7f02f394f2eccd21U, 0x8f7ff30874c4f017U, 0x81de8100307fe2daU,
  0xe61323c9e6b5d811U, 0xf35c95b8e6d504d3U, 0xf69dc102a9f77ff3U, 0xdd7fec7f1dea7f1cU,
  0xfc17fba7b9d428d2U, 0xb07ff8e310f07f11U, 0xe1e2f1d7c6faa3U, 0xf6f17fe801818108U,
  0x81f17ffbdafc7ff6U, 0xf7de7ff3e9ff5265U, 0xdef87f7f29f2eebaU, 0x96ed1ff0410c4913U,
  0x8020df80c0b0013U, 0x8924eff70cfff615U, 0xee0510dd131210U, 0xd0c110810f4130eU,
  0xec180ffa1e0905ffU, 0xadfdbbec1305e80aU, 0x1806f7e911230d00U, 0x2ddce6d6eaf6c3e3U,
  0x109aef10fd0206fcU, 0xea4c360e050904fcU, 0xe107f3fdd5cdf4f8U, 0xfafffe0c18fe2e06U,
  0xbeffcf208b0feb0U, 0xfdf90a01f2f1f807U, 0x9afb14fb131f1304U, 0x3fdb000815dee71dU,
  0x3ff1504f80dd20dU, 0x957fd8d88df1707fU, 0x2919fb0b17eed6d1U, 0xd90c188ae5f67fe5U,
  0x24fb06f0e8e30394U, 0xe67f7fade1e5cd15U, 0x4bfa8104ffed7f25U, 0xa60a835a36cee4efU,
  0xa5091be3da41d51cU, 0x5c37811f7fcfedcfU, 0x7fa9ecb209e5f6d7U, 0xddae9e0521abea18U,
  0xf7107ff201819ed4U, 0x6e6fcab04bd2909U, 0x19e9fb7b7f9f7fafU, 0x7f7ffbcc7ffea602U,
  0xaaf2f97fb9e526e5U, 0xef37287fd87f7f7fU, 0x7f7ff6dd291fe4abU, 0xc9a6907fe1939bd7U,
  0x9760aa7f7fa47f81U, 0x81817fb59688b89cU, 0x817fa3817f7fb5ecU, 0xb287af7f8981815dU,
  0x40e2147f81bebb1eU, 0xa4b3018181a57faaU, 0xd9aa7f7f8181b481U, 0x2927b77f90817f7fU,
  0xcc0d7fd1c09b9ba3U, 0x7fd3d48781d41d7fU, 0x7f7ff7ca7f7e657fU, 0xcf8b7fa781bba17fU,
  0x7f7f81988d1fdf81U, 0xdaeb89bbc705587fU, 0x387fabecba7fbf99U, 0x817fcbc0a2bc50a0U,
  0xdcabd582817f7f81U, 0x9cb3c9d57fe9229bU, 0xf312f91817ecc3cbU, 0xc7fd1284f90cb47fU,
  0x151aeff2e688f87fU, 0xeefacda4e1e5d1fcU, 0xa7f5750af2dfbf3cU, 0x9c099d3734f7dde7U,
  0x7f0214eff144d325U, 0x81368c33d7c7ecf8U, 0xa3ade37fe07ff77fU, 0xe1657ffd1a7ffa0aU,
  0xfd0484f40ae2c3e7U, 0xf4fcf87f087ffa0fU, 0x10f2ef7ff7ab9dceU, 0xac91f77fb2fcf824U,
  0xa504f6907fc5027fU, 0xef330cc27fba67edU, 0x9dd607ee1013e2ceU, 0x970602f72b0d121aU,
  0xefd9fbfdfb050020U, 0xaf23fffffbf1330eU, 0x3e9e802e800fbefU, 0xe3506f40cf716f5U,
  0xdf6f3f806061fedU, 0xaafbab0221ebd806U, 0xf603ecf50f431c0bU, 0xe5e3e8f11800d9e9U,
  0xecbf4e31c07030bU, 0xcdfc010504fdeffaU, 0xe1050e12b2ceeaf2U, 0x19f1fc0a0d0cfc0bU,
  0x7e8e811028e13daU, 0x1818010a1007000cU, 0xb8f90418fe130713U, 0x35c716310cf3f622U,
  0xefdfa0500f9d9faU, 0xccf781d9507fb5dfU, 0xd781ff173fd9f270U, 0xf31113b702f7c8d8U,
  0x1a1d7fa2fe1cabf8U, 0xcce2f5ba7fe6cbf6U, 0x7f9df10e037fed5bU, 0x837fb0121bbdfa7fU,
  0xf37f1b06dfae7f1fU, 0x28185bbe7d9fbd4U, 0xf48ac1ee7feee3ebU, 0xee94e0f223f5dc26U,
  0xfa14f37fdfcd7fd4U, 0x7fc40bdf1ee1130dU, 0x9ff13b8f7c0f6b2U, 0xfaf303e508761b22U,
  0xb20bd3f6e4efe0f0U, 0xdfd1d2e9cd150ce8U, 0xf7f6acf2111af0aaU, 0xa3f803f7570ddf04U,
  0xf4e7fafb1a08fc25U, 0x4425fbeef5f30e12U, 0xae60109eeb3fa18U, 0xaeb05010ff4e781U,
  0x11f315fefb12ef7fU, 0xc305b9fe20f7d90eU, 0x1612fafe101d2012U, 0x15edfa04f8f0d9a5U,
  0x2caf6270d0c050dU, 0xcbbf15010b13f003U, 0x2206ff16c4e0f5efU, 0x11fafc280b17f611U,
  0x4ebefff0281f6deU, 0xf0f20010e519fb1aU, 0xaaf1f8f01824f4fcU, 0x37cdf3de2734f6dfU,
  0xf50ae40009ffdefcU, 0x17a0000000d8U, 0xffffdb95fffffe85U, 0x35c0000000a1U,
  0xe237ffffff15U, 0xfffff5befffffe02U, 0xffffd80d000000c7U, 0xffffe492fffff251U,
  0xfffffd96000008deU, 0x60000005cU, 0xfffffeb1ffffffbcU, 0xffffceaa00006240U,
  0x4668ffffea21U, 0xaffffffbeU, 0x1a20fffffbaeU, 0xc3f00002a40U,
  0xbffffcdcbU, 0x3a07ffffe869U, 0xfffffde1000032c9U, 0xffffff8500004c73U,
  0x200000162U, 0x137ffffe5d2U, 0x69ffffffd3dU, 0xfffffecdffffd8a4U,
  0xffffddaffffffe0aU, 0xfffffb99fffffe61U, 0x14fb000003bcU, 0x41ea00000134U,
  0x5781fffff38bU, 0xfffffd4a000000deU, 0x20ce00000556U, 0xffffde1e0000335fU,
  0x51fffff3a9U, 0xffffff35000093e1U, 0xfffff84e00006040U, 0x56edffffe9a0U,
  0xfffffd09fffffdf9U, 0xffffffb9fffffedcU, 0xfffffdd7fffffe15U, 0x65bfffffe78U,
  0x81000060a3U, 0xfffff574ffffeffdU, 0x163efffffdaeU, 0xfffffc0200000bfdU,
  0x36aefffff822U, 0x48da00003eb8U, 0x66fb00010b80U, 0x17efffffe62U,
  0xffffd4b6ffffcea6U, 0x725ffffee8dU, 0xfffffa2fffffff9eU, 0xffffeb36000000f0U,
  0xfffffcbc000009beU, 0x6c0000582fU, 0xffffff03000055c7U, 0x405600003e10U,
  0xfffff60f00000e92U, 0x57f8ffffe82fU, 0xfffffc21fffffee3U, 0xfffffc9e0000022bU,
  0xfffffd45ffffffa2U, 0x1ccfffffbd2U, 0xfffffde500001650U, 0x1090000019bU,
  0x5a27ffffe3b8U, 0xfffff3c8000000fdU, 0xfffffcfe00005b3aU, 0xf5effffff43U,
  0xfffff40dfffffa5aU, 0x38600005379U, 0x6fffff0b1U, 0x340000030cU,
  0x14f0000022bU, 0x37e90803f01d24fbU, 0x1913eeee1be8f900U, 0xf00e01f123130300U,
  0xebee7f527db0d23U, 0xfdd7e34bfc1c1d01U, 0xfefdffbff6010dU, 0xcb1911dd45fb1ad7U,
  0x2112e425fc373f0bU, 0x15ee190cfcdb0802U, 0xf0e9fb1ff5d219f2U, 0xd6fafb060805fb06U,
  0x1aede0f84633d681U, 0xf8f823fe1fe50301U, 0x4f101d522ccd8f6U, 0xf2f8eb180f01fa10U,
  0x19e3ecfeef01daf3U, 0xbf4dc22fe21fffcU, 0x17fbfc15ea230315U, 0x11f8e8fa115ddff5U,
  0xed179f1a04770110U, 0xf7eff5ec04f103f2U, 0x8df7ff001fa2ef6U, 0x60f0ec1836e205ffU,
  0xe4df7e1ea5afcfbU, 0xfc10ef17f951f360U, 0xe5faed09e5fe1dfcU, 0xf421ed09f3fdfe10U,
  0xf0050be642fb2cefU, 0x1d0decc324f503eaU, 0xf5e4e94c0ef7f0fcU, 0x5f4beefdefee0be1U,
  0xf5ddf00ede04f100U, 0xf7ee21fa22691b0aU, 0xffe54fe7eaee27ebU, 0xf1ec03e3f1fe07f0U,
  0xe3ea4633fafbf202U, 0xc01bb21f7ffd416U, 0xf5fb1a1f0efef5c4U, 0x613030f02c30006U,
  0xcec0b2dea10ff06U, 0xd418d5c736c1f3faU, 0xfcee0bf83ee80b02U, 0xefce9135d01fe0aU,
  0xf8cc08d0f1d9d814U, 0x22601da0bd8e60bU, 0x170ae0fef6faf7U, 0x2619f9da0af50be9U,
  0x632e7eef06420f7U, 0xf2f1df10eb03271bU, 0x81e3f030f7f5f1dbU, 0x17fad6d320063cdeU,
  0xfc0405f40dfaf80fU, 0xf2e3f1e0f2e3c423U, 0x14e7fc1ae1f7f0eeU, 0x15f9f8ead9ed0ef1U,
  0xd2040d03ff203e01U, 0xd50adc0609ffdd0bU, 0x1401ef20c2dc07f7U, 0x92a29fcdf6559e6U,
  0x4afafee83a18f016U, 0xf9d0e021f2ff1326U, 0xe8f51a7fd902d4ffU, 0xd80feca606edf785U,
  0x23fdfefa16250335U, 0x243116f9ee02fb03U, 0x69fd1600120b17f5U, 0xf70fd6030812c8caU,
  0x1d002815effa2e12U, 0x1103d8041f36caU, 0xc5f919f309290a0dU, 0xf6ffe6cde6da16fcU,
  0x8edefc716ee1218U, 0xf00d2825d707c6e1U, 0x26c0f5170bf22a12U, 0xfe091e10ffeb1406U,
  0xeddfebf6fd180bf6U, 0xb30ad3b8289d32f8U, 0xf90ce8e0fef0f6f0U, 0xe1c150944fce8e7U,
  0x913df9503ccda1fU, 0xfb01ecd80718244fU, 0xf80236c51ff7ece5U, 0x1807fecb24ed1edbU,
  0xef9dffd071f075fU, 0xfff0edfee6f14741U, 0x3bcb6f1b042ffbfeU, 0x220ee31919e905e3U,
  0x1cc6ec1c0bc4dc08U, 0xf3305fcfdea7f17U, 0xfbef030ce0290201U, 0xe805062bf8ec0408U,
  0xfc1a6c121eef0bf5U, 0xc0605d6d3f209f4U, 0xf30ecc25c9fee812U, 0x2033ebcad5bb360bU,
  0xf01e13533ffb10caU, 0x1dcc24f0811d2a0fU, 0xfaf8fff4bc07dee2U, 0xf6fa1bdbe8461543U,
  0x9f70e19fbd5f80bU, 0xf32cf2faeffe0c0cU, 0x1cbd2b1016a8b8abU, 0x14f6e5e2130d016bU,
  0x3411500bfd0a21eaU, 0xfd18691001fa4eedU, 0xfc47eef7f7f03203U, 0x1dfef4ee2bc835f3U,
  0x1304210ee59ce775U, 0xf9170a391cfef504U, 0x1c1d0dfca0fdfa16U, 0x1218edef03f91204U,
  0x63fd0e04f61eec00U, 0x3e900130122f3f4U, 0xcff002f9cd0df5b0U, 0xd0ac20214190a08U,
  0x2f53663da0ffa1eU, 0xf10b1bfb291b50U, 0xe0f8d5e30401eb0aU, 0xd40307131aec09daU,
  0xeee2f00528f92cf2U, 0xfdf3e009eff329dfU, 0xffacf5eef4050406U, 0x6704d80f05e4c4eeU,
  0x1dbb66810aacf0f8U, 0x9010404f61ee8U, 0xe9109106e71c0418U, 0xf2f5fe19fcf8e800U,
  0xf6fe0d27f6f0060aU, 0xed0506120edf03feU, 0xf4f5ca1ef41e0015U, 0xcfe073ef5410107U,
  0x1908f40ef2010d37U, 0xf50def0ed2f000f5U, 0xbf3333bfa12041dU, 0x5f3fe0606fee681U,
  0xe4ed030ddefcf2f2U, 0x15e906342ef612ecU, 0xf225ff032f28fad0U, 0xec13250af3f4bcb4U,
  0x10e016ee11f0f8f1U, 0xa01ea00f907fcd6U, 0xe30f0e0b0b35ef0fU, 0xeaffe71a06052124U,
  0xcf8ef07eeeff925U, 0xb503fc40d32be505U, 0x90e52f08e413fb60U, 0xfb2de5d8f1eaff36U,
  0xd4283be024e6d5feU, 0x450a0411ff1c3414U, 0x34150238d5f71443U, 0xfc15152381ea010bU,
  0xe40650f20dd8fce0U, 0xf83109b4f72c138bU, 0xe8eeedeb15f410e5U, 0x25fcf9d0cfdf00cbU,
  0x49aa36092900f978U, 0x8141ed523f2a3e0U, 0xdfe613def34828eeU, 0x1c14eb1ffdc4b1deU,
  0xf1c431e8eb2e17f6U, 0xf08f81e07f09e02U, 0xec18f918a8a7c4d9U, 0xebb208f7ecf6edb2U,
  0x41c1b1407f01bfaU, 0xef17f52007e7e3e2U, 0x401f3000e1bf4a8U, 0xf0e5a10b0907fe06U,
  0xf5ef9b1903f9edf8U, 0x11e61209f3e905f7U, 0x9efd1506132aeef6U, 0xc0e71ae6d114f1f8U,
  0xabefe3caf6b7f991U, 0xf8f2aa1dfea9080eU, 0x215a9ee3c06f624U, 0xebe925b811a8f30fU,
  0xfe1308f7cdfd81f9U, 0xb19d11b54ee1f901U, 0xfe1100a6c80907d3U, 0x172805e1daf722fbU,
  0xbcd6f7ff05e40b02U, 0xd717fb0d0405f3dcU, 0xc9ca2a10001dd3fcU, 0xd7eba20fecd91424U,
  0x13b3cd15cdeeed01U, 0xfd2b1f05dafb0dU, 0xe40408f0101afdf0U, 0xebe32e362afd1a16U,
  0xee210cf4b20311f0U, 0xe4ef05f526cdf421U, 0x212719131c1cdf29U, 0xfa0c00f302f51edcU,
  0xe81bfeeb3b7f0b15U, 0xe000cf6eb28210dU, 0x2504f3e7f2091ef8U, 0xa0ab2ceea3624f4U,
  0xfc0bc7fb05020b0aU, 0xfcfeebfbb6281c02U, 0xfbd5f8b1f8da002fU, 0x19fd060ceeeb08efU,
  0xc0c72fd8040bd67fU, 0xfd2a0d470c17e11eU, 0x1c24d4f507d317e3U, 0xfcecf5fe1805fe18U,
  0xdc150e0af40af003U, 0xf14ae41cde109c21U, 0xad1fd1978e8e2d4U, 0xf2bfebf30b48f9cbU,
  0xf7bfe5e7f40216dcU, 0xecf8f505050774caU, 0x1826dc14f13200c6U, 0x180e0a0acd03f1d5U,
  0xf1eb32fff2ca1ec4U, 0xfcf91cfd281bdde8U, 0xfc23ced9f7ffbef6U, 0x2d07f6170eff5508U,
  0x90fee0914d9f9e5U, 0xdb010e78d5d07b16U, 0xdc81e098eeeb2b4fU, 0x2b38eff3405e1eefU,
  0x1bff2ba121ea0021U, 0xbfeddbaefbed21f2U, 0x11f9e3e925b8a416U, 0xf7dae9c914031c11U,
  0x110432faf2a899faU, 0x5c22a2e0eccf5f6U, 0x153dc0b700eb10e5U, 0x5e2be2c158e140ceU,
  0x1457eee551f8774bU, 0xea0bd8eb10fa35e6U, 0x45c19233f90cdb02U, 0x3bdff228f9de609eU,
  0xbe167cbfa2086e8U, 0x16cce30e17e71146U, 0xe250e1d3b8243886U, 0x20f1fad11dda2518U,
  0x15fd36eb1be9f422U, 0x20ed35e9f90b32eaU, 0xe9af04317f41bfdbU, 0x6e0ef18f704d9e3U,
  0xf1d610e2cbd7ab3eU, 0x114703151cd72915U, 0x8c28dfed6f1f036U, 0xe0fc1517051419d6U,
  0xd1241ad4ec36e603U, 0xcde90ad1741e47e5U, 0xe406c8185b071c5dU, 0xefe89b1b1e05fa56U,
  0xfb302ff3e0080e2cU, 0xd200c01536d33962U, 0x1993b21802023dd5U, 0x1bf1090a11a353f0U,
  0xd2fcf4ee52022536U, 0xf70e001f0308f3e6U, 0xb704f7ea0f1fd7cbU, 0x22fa17f6ff173efaU,
  0xf3f2ddc4def2ea0cU, 0xf03ebfff7df08U, 0xffea0704190f0305U, 0xfceeeaf10e051ffeU,
  0xf2922087f200a0cU, 0xf6f3e5dbfafe16ddU, 0xb150d16ff11fc1aU, 0x18111502e115caebU,
  0xd0f16dae6dc24U, 0x102f5fa1911090eU, 0xfdabc15fc0cf30fU, 0x2205e305e0fa27d9U,
  0xed0303dd06121ae8U, 0xe929ef1d2d08f8fcU, 0xc02f71fddfac4f0U, 0xdfa1acb41dbe8f0U,
  0xe8e91e7f1de02318U, 0xf9e202f4392b3107U, 0xda4534d7ed56d61aU, 0xff18e1f2dffd08fdU,
  0xfad4e81ff5bf48f7U, 0x13cddd44b3f7e7f4U, 0xf1cafc15c5e3c7f7U, 0x20b2b933e9160bf0U,
  0xde0e14d0cf00e3e9U, 0x1efc10f693fb0f4bU, 0xda1305f4ef11f6c6U, 0xdcff0b0204c3f4f4U,
  0xd2428b2af9e4f9ecU, 0xfe11161fd7de0338U, 0x8e206fe0f0adf1aU, 0xfc3220c31942d300U,
  0xfc1bddc2290902ecU, 0x39ede00103043ce7U, 0x333de715f7f40621U, 0xeb01d4dc5709003fU,
  0xf4fc24fcf70d1f02U, 0x923f3e920faf5fbU, 0x20ce217d2f9e0faU, 0xcff80218401613f7U,
  0x12ca03eef90ff30cU, 0x13de12060facfc0fU, 0xe8cff5fef40a36f7U, 0x2bfa0be1f1010611U,
  0xf8f6f4ee06812482U, 0xe60801ffe8f7ef0dU, 0xff031904fb16e0e5U, 0xeceb0304170e0ff9U,
  0x5141fdf160bd3fcU, 0xff09f6ffdc291e2aU, 0xff19fab7efef0f1dU, 0xe001e70be0f81b06U,
  0xe406080ff8ef1d0eU, 0xe1db2317f603fbf8U, 0xf318de0015f1ed06U, 0x1e050d03f7b733f7U,
  0xf309020ef2fb1cd8U, 0x1218fe0ac6100000U, 0xfe05e5fd1a2602U, 0xf7e407d3fd0afa7fU,
  0xf20eee220cfdf9f3U, 0xcfedec5024fdfff8U, 0x2b140cf1ddfdf8f1U, 0xf2ee2a04f20a3444U,
  0xf421badb12f5fe28U, 0xf000bf6e700cf1eU, 0x2a19050600c9fc08U, 0xfdf3d43114dfd7eaU,
  0x1fc02100ee701eaU, 0xd510f30701d6f7fbU, 0x3f5030702fb0d00U, 0xddf6f91546ef0521U,
  0xfc01fc0c02f70dfaU, 0xf0e80b4038f20e13U, 0xfef7e70fcfec0915U, 0xfdf90300b81409f5U,
  0xf30d16090e7f5ee5U, 0xf608010a14f6f7fcU, 0xeada045503f62afeU, 0x831a002601f60421U,
  0xfa17ecf81d1ef2c1U, 0xf80c13f907d7e702U, 0xf00f4e352b7f433U, 0x5eff9e901fffaefU,
  0x100310fbfbf90f12U, 0xf3f5d9f70506ec22U, 0xc040415f90215fdU, 0x2d08c11bdab21efcU,
  0x1129f0c1ebe51b48U, 0x9de7f5332de847ddU, 0xf42a741037ce24e3U, 0xeeb31f5507fbf9f7U,
  0xe724cff4c9d2db01U, 0x391aedfc81e7e10cU, 0xdf2011279e1a0934U, 0xfbe0fd19023ff1dcU,
  0xf31adcf305d499e2U, 0x4e7f346e5d5f931U, 0xf536d1c5c0455ce1U, 0x1fd0709d6dc07faU,
  0xb9d4f5d8e3e2de10U, 0x9f945f3fd01ceedU, 0x112418e308dab741U, 0xee17e818c22349deU,
  0xfeff0dd8f8cd1505U, 0xa0af03137fe4c1dU, 0xd1f005e82008cd25U, 0x2414fef6f51dcbe1U,
  0xee2d1c0bd10428dfU, 0xf05271cdb118417U, 0xc91eeee0160ffcfdU, 0xf915dbf5d4110617U,
  0xfce1224fdc3014d3U, 0xfe30106d08c9f118U, 0x2cee021606132414U, 0xfffdde0b1d00efebU,
  0x9afc13f71be401d7U, 0xd914160e221a1322U, 0xefb1e03d8031460U, 0x27fbeccc0eec01ccU,
  0xffe344ca03f206f9U, 0xfec68110e817a60fU, 0xfb0dd708ffc2fbfbU, 0xd4e8f8b2eb27caffU,
  0xe9cbfdb427fbc2ddU, 0xf8fffa19f6093508U, 0xfde4111fb6c5ef08U, 0xecf3cd9f091ef007U,
  0xfee9302ef21512ecU, 0xcb0dddc331f5d4e2U, 0xe1a1b2ee9bbb72bU, 0x28ff351bf1e9f427U,
  0x230bf3c50da4e4cbU, 0x7f27cab1deeffa4aU, 0x2f15ebfdbd542ee5U, 0x1a133fcac71505f7U,
  0x62e1246e31fc1ddU, 0xe0eb0f24480b3d49U, 0xfd39e001b811a6e4U, 0xd6f575dee934114dU,
  0xffff0b272bfee123U, 0x9eb2201efbc06dfU, 0xc01b0607daf8f1U, 0x4ede7f4be2aece8U,
  0x19c50af7fef4cafaU, 0xd2e41b51e3dd0c2dU, 0xecd6d0ffaae3f0faU, 0x805f82381d0ece8U,
  0x731fd011618d4ebU, 0xce8310df80dcb11U, 0xad0be5de2ce009U, 0xfaf6fbee09f7310eU,
  0x173e1cb21dafa40U, 0xb6d6fc2430d813eeU, 0x12f31802c714df09U, 0xfbfccd2806d9e3f2U,
  0xfbedd70112e8dd0dU, 0xd5ecedbff92fbdeaU, 0xe656d7eefedcec41U, 0x7bedff38f6bf33faU,
  0x1f0e28fe0be6092cU, 0xfb0c79e9f7e8ead2U, 0x3051bdff4f8fdd4U, 0xee2100cdfdfc00e6U,
  0xf94ce5b438fad91dU, 0x9c8f4f758fff4f1U, 0xf593dd16b1eada21U, 0xffc0e605e81516a5U,
  0xe040c08f40cc8efU, 0x202706d4110f01c4U, 0xf9d3d8ed30ce0fdaU, 0xe81cdf1de60c0bd7U,
  0xbea28126ea0af94dU, 0xfef233f1f0cd54ebU, 0x26d6f6eb2e0a16f9U, 0x3c18281b0c090ccaU,
  0xdfe111d0f6d82423U, 0xffffa36600001748U, 0xabaffffddb3U, 0x590bffffa6bdU,
  0x374effffe2d3U, 0x7f6600004f5cU, 0x5d9cffffa6d5U, 0xffffa174ffff9954U,
  0x58160000234eU, 0x1a9600003463U, 0x3cb5000049abU, 0xffff999affffe87aU,
  0x34b2000046f7U, 0xdf0ada1420e116caU, 0xe9b422bb61effa2dU, 0x11338110ac0bd8c9U,
  0x10dde345fbf2ca11U, 0xe1b9c2057ff602daU, 0xedd20726c9f9fd0dU, 0xd6c17d85ce040027U,
  0xfa4307a37f440410U, 0x848feec1af863faU, 0x7fe6d1fa7af2f6f7U, 0x5330ff514d0072bU,
  0x30775682cfbc1deU, 0x572f290af7ffd01eU, 0xf9527f22652d0aadU, 0xcee13bcca09173fU,
  0xce1ce6e0dedefb22U, 0xf8bc56e42dd710b1U, 0xe022e58115e5cde0U, 0x3629a235c981ff1dU,
  0xb1e65aab033f0473U, 0xd2c7a3f02bb833efU, 0xf706fc120206fa0aU, 0xf7f008fe15f2f1e6U,
  0x12e910fefd7ff627U, 0xd6d0df13f48b1dfeU, 0x3274dd4f7f3cf1eaU, 0x242601df0d1ae8f7U,
  0x2207675301c427d8U, 0xd6cd28b37f30fc2cU, 0xd42bf4fae42dea58U, 0x36271471d32b3a49U,
  0x661c97f15fced53U, 0x24f2e56d3ff2202cU, 0x2d1f4e82f37fc9b4U, 0xa6f340d35a315313U,
  0x29e336dc4ac65112U, 0x21d7dbf4ec0f1805U, 0x6681cc6fe2f1fe0aU, 0xeaf71306c616378eU,
  0xc2e5e8f702e63d14U, 0xe42704deebc181ddU, 0xfb9170d37fefe2cU, 0xc25bb332975b42bU,
  0xdd06503f2cf9b7b6U, 0xb981c40909fbc849U, 0xfc24bc2b15482ff6U, 0x1d812cc6e529f606U,
  0xf1e21c00f80de5d3U, 0xd9ded2e500efc9U, 0xe42cffedb6f72cc9U, 0x7f052afeea2063d1U,
  0xcf7f0b0ef40f01f4U, 0xb11a819fd05faf6U, 0xf1dbfd0b05fa1efeU, 0xe7ea3aaa075a0118U,
  0x24e202507f0bfeaaU, 0x792fbc11cae930b9U, 0xe30dc5d7ed7ff3faU, 0xc5eefed9dcdbf448U,
  0x17f2ff2114090be3U, 0xe98103ce1fece6d5U, 0xc822e5f54a2ff41cU, 0xed0f04f613eef8d9U,
  0x33287f25e1a613f8U, 0x9caa0ab51106e8eaU, 0x85615ebf1880e00U, 0xf1ab4eed97f3112U,
  0x6ef0f6e1fce43552U, 0x1be33bec0525fe24U, 0x7f20261b2c2c4000U, 0x60db57ccb14afe9dU,
  0x2900be00af1e2a21U, 0xf3fa49db43350405U, 0xfc0ee517f7e6f6c0U, 0xe208ffe1ee5781feU,
  0xf9221a17f1e51df5U, 0x7f5670f19c1bd81fU, 0x18f203a447feeaf7U, 0xef15ad8156f0ecd1U,
  0x3c1642f9b4212fd9U, 0x40270213bc053224U, 0xfd3ddfb3d10712d0U, 0xe8d6ca1bf717f0ebU,
  0x320ee381c823fa08U, 0xb28e0eef9c9021fU, 0x8eb17d4f21ef709U, 0xff0abc163d7f34f0U,
  0x5425eb1b21d13b28U, 0x1eefef71c02a20aU, 0x381d2082dbf044dU, 0xe3f72327031bf9e8U,
  0xf0b0814f6e8f4eeU, 0x300932e7f57fd20cU, 0x6a7fc6492a59e60aU, 0x2934fa4e09fac3f6U,
  0x5b616060a7aea4dU, 0xdcd10fc701950212U, 0xde2100517ff736e0U, 0x3213f09e3241a08U,
  0xd4d07fd7fac8170dU, 0x32b2f394f83bef1dU, 0xf4fae0dc41f9e233U, 0xef33812de77311ffU,
  0x5f0dfbbce12de7c1U, 0x3ec49b14eef4ba20U, 0xa212eb30f22b30e2U, 0xf454c210b3c4c381U,
  0x5bfc330beb781812U, 0xf535364206ea22U, 0xd42fdf19e9072b1cU, 0xd03e16be0af67fffU,
  0x151b44b72e250934U, 0xcfc07f1cfa46dfc3U, 0x40cd360b75e02511U, 0x352916090c5cf3f0U,
  0x3d24ff81ff10e1f4U, 0x13e8eedd0ef2fd0cU, 0xd101df440dfaa92fU, 0x1f51ee98373120b5U,
  0x7fffff05bc15f5dbU, 0x1602e9dc81f3f5d7U, 0x2af60207e72a08c5U, 0xf8f117593409bdf1U,
  0xdbe822277f18d31fU, 0xdbc8d20ae418202cU, 0xf4eef5a2eafc49e4U, 0xf6f6fd0c0efdfbe7U,
  0x5ff0ffe10f00712U, 0xf0fd0809127fe91bU, 0x117ead3c80d0cd7U, 0xd4d5dc1afe16faf5U,
  0x1206e681f618e304U, 0xffe52b421b26f6dbU, 0x404381f15fb1d2eU, 0x1ae93703db7fac20U,
  0x60027afaa881b2baU, 0x24f1d8e186312facU, 0xf95a3b54d0eaad1eU, 0xbdcb7fac35030d06U,
  0x8d0c353543412ebfU, 0x24bfe6f5ec120ab0U, 0xec0dd8c407e70109U, 0x843597f2308f6fdU,
  0x1e4e05fc100417f2U, 0x3ce824531c9ffd05U, 0x2181f200a120fba5U, 0xe008f8fde9d10af5U,
  0xf604fb12fbfeee0cU, 0xfbf21afb13e9f0f2U, 0x17eb2101057ffb1eU, 0xc41d7fe92b0ef426U,
  0x260cdb17b21828b9U, 0x340ff20bfffbdcd1U, 0xd9f1f9007f5d15ebU, 0xd2d25c01ef0cd821U,
  0xf30fff87900e4fa0U, 0x35f77f9edf120103U, 0x26451414b3f2112dU, 0xc1193cda57e52febU,
  0x230fe9cd19d824c7U, 0xb805d3c90d16e903U, 0x713aea23811b33fbU, 0x7ff603e1ec2ebb48U,
  0xfe70c1965227f725U, 0xcabae5f724e325cdU, 0x1136cbee81d42fe5U, 0x410a2603211dbfd4U,
  0x3b4df7e231a8d0fU, 0xe3e30fe231ff0556U, 0xd27b810e80e06dfU, 0xfbf8be290e81c6b3U,
  0xdb110708137ffef3U, 0x1fc5abd34e5f72dU, 0xe8bcf81bdc01ea1cU, 0xa9fbaad1055e010eU,
  0xf7f0beb540c1217U, 0x1d1208e11108e3c6U, 0x242be7677f2fee3dU, 0x2e9815e3e000f902U,
  0x2d8cd39fda05462aU, 0xd2a575ede8d1130dU, 0xec81d110591f3319U, 0x1d476b0f023031d5U,
  0xbdc4584e991d1806U, 0xf513b7eff90fe2fcU, 0xb331091e1ff57f27U, 0x5b8d914f9ef0fbeU,
  0xc079816157292c16U, 0xfc134808e504cffcU, 0xf9ce052843ea161cU, 0x3e210d000f0ffe2fU,
  0x26eb187ff0140aefU, 0xa8f83e29043adedfU, 0x4332d45caf4ff1dU, 0x10f5e8d20e278104U,
  0x407fcdfe4c185006U, 0xeb2bc50e0796f2dfU, 0xb114271f2511bbcaU, 0xbbd50cdd00b6fa23U,
  0xda7f5191a81ddU, 0x1a353b2f1fd610c1U, 0x20c2d831c0fff9c5U, 0x75918120f7b3cbecU,
  0xa0e2d00623e543eeU, 0xfb037fdc2ff33ac6U, 0x52041fdb230e81aU, 0x6d313a1ddd4c14f9U,
  0xbfd00a207fdf1c36U, 0xbd1bdb4037de0c34U, 0x11fa0e9d0b086318U, 0xf411f9f8f010167cU,
  0xfe232d15bc29fb13U, 0xffefb0a8116e717U, 0x90af4f6f60e0b15U, 0xf0fd2e010907ff02U,
  0xf6e2f20cff810811U, 0xf2d50fd6e2b9201cU, 0x449dd1dedf004feU, 0x227f01f30bcb07faU,
  0xf2f507167f21f820U, 0xf6f4f1f3f5f00720U, 0x92cf89401ea5dfdU, 0x1eeefbebfbe7ec1cU,
  0xea1befedf2fff2fdU, 0x5f8fbfdff7f0f0bU, 0x890696117f18053cU, 0x38e80f461fd80360U,
  0xf4fcfa88262720fbU, 0x1d235fb50afe26e1U, 0x31477f1f973fe124U, 0xeb1814d968131c04U,
  0xe0fafce6ec2508fcU, 0x1a7fe8d5f5ecf10cU, 0x41708df250afcccU, 0xe3e454e731340933U,
  0xf90fbc0dfe14da9cU, 0xebe0c1220b81d8deU, 0xaecd26e708202ec1U, 0x2307c40a81de0bd9U,
  0x71f428f8bb20e205U, 0x1401eb367f3d3332U, 0x1cdcedb0c820f32bU, 0xfb1a31aaf91027e4U,
  0xc6f452f1089fd9f8U, 0x79088dd08b480f14U, 0x25fcd2df7fd6bdd8U, 0xd9430fdaec2524f2U,
  0xcbc3f3f5f911ebb5U, 0x460a2b81fb4bbc01U, 0xd7d826ea0d11dff2U, 0xc9c4c4b67ff61c42U,
  0xff32e62d3cebe30aU, 0x1c7481725b0513e2U, 0x48ef46bede24dad7U, 0xf2f4b9f6395d9d27U,
  0x183ad7031367c71eU, 0x41042f81e5ef2204U, 0x5f8dfde15fff816U, 0x347f65e65bd91205U,
  0xa3eb00ccf314eb21U, 0x3c20e93ccf08d014U, 0x360d351712d60becU, 0xc081090fb420f9f2U,
  0xe4181222ee000ceaU, 0x2e0e10277f272c3bU, 0xe8c2fecad0def214U, 0xceddcbaf9f8544eU,
  0xebfc04db81ac12fdU, 0x2c9f95723f2dbe5U, 0x13cffd7ddde4c7deU, 0x1f050dcf210d377fU,
  0xea212ff7b77abdfeU, 0x16144020fb0cf561U, 0xd0ebff027f2e0236U, 0xc517fef10b030e2bU,
  0x200af2b31609410aU, 0xf312cabfd233c779U, 0x2451007fb8d218a9U, 0x598b25cbeeca2a91U,
  0xdc5c6bfc17d21f26U, 0x815fb0a812109f0U, 0x4be61f004d1ee3eeU, 0xe0eba6e2e7dff12cU,
  0x4be70bdd818ce0ceU, 0x3df1f8d7f7d10e13U, 0xe03f8ba7ede02136U, 0x282b3108a4f9d6edU,
  0x4005ba1bf41a7fe4U, 0xde2619150cb2ff22U, 0x3bf0ddd060ef305U, 0x7fe1080318fddfc5U,
  0x2012db1e75d1bffU, 0xff4b5c268c0c05d9U, 0x197f2bd53df72fdbU, 0xf71b00110ae6e5f4U,
  0x14ec5c7f260f0904U, 0xfdfc13f41161e850U, 0x2a18181a177303f0U, 0x9fdfb5a7ffa0424U,
  0x8dd9c23638c9ec13U, 0xc0e581152ec14dddU, 0x1130f977c7d3deedU, 0xe1dafa200b1cd619U,
  0xb817e2b81beefc0eU, 0x19527f222e2cf6d5U, 0x28036af8240f3ae9U, 0x70b5bc01ebce053fU,
  0xfbe83d00252b0569U, 0xbe0481fa4992f9e7U, 0xacc06b5ff7512fbU, 0xd956d6bedfe620ddU,
  0x187ffe1714e02e2cU, 0x18ea5745fd81050cU, 0xdbb90a37ffe5f1fdU, 0xe2e70605dd18e711U,
  0xf221ef0c25f3d4deU, 0xecf9ede4c9ff8129U, 0xf300d52400f1e223U, 0xfd1ae9eab3e7fdf6U,
  0xd9dbe6f3ff11010dU, 0x6f4f381fa43ecfeU, 0xfc81ed40cf14040dU, 0xfaf35becf203fc03U,
  0xf6e1f3021bfe1e0eU, 0xdaeef0d90309ef02U, 0xdf7fe40241ff1ffcU, 0x12ee05ef0b0d010fU,
  0x20bfb06f6fbfe0dU, 0xf4fd07f304e7f2f5U, 0x18fa1ef7077ff80dU, 0xde19d6fe0826d520U,
  0x5d221065318f4f5U, 0x12812009e73ee22dU, 0xedb96b24fbdfe5dcU, 0xfe99aa8145f756e9U,
  0x3552f30ff6cbe4fdU, 0xe101f188aa67cfe9U, 0xe47f01f814162015U, 0xea1df4112be5fbe9U,
  0x5102efa812904ccU, 0xef288842dd280533U, 0x4a4fc591e64320efU, 0xd3ee75f30d830dfdU,
  0x7116e9cf3300170eU, 0x420681feb7f708d0U, 0x64e8b5b1c6acad7U, 0x557ff58beb0334deU,
  0x1188cdd21d00f6a6U, 0x421501eb81d23307U, 0x1cd80fe4d9eac98cU, 0x2697e4733ff6994eU,
  0xfaea1a02f00fed43U, 0xc1f3b9f9f41f16d1U, 0xced1a2f13e81ee06U, 0xc92dfdb118cf171aU,
  0x1aabeebe10ff07cfU, 0x7fda03d9fce5deb2U, 0xabae81ba0639c2d7U, 0xba628e6a61ca34caU,
  0x2b01ec15740f26eaU, 0xe0f35aaedd2f1313U, 0xf402f2f447ed00e1U, 0x5c3e1b0b810048fbU,
  0xe20fd3011fb77fd3U, 0xd900df0226c31539U, 0xecd000122b3ac7f9U, 0x1e25e8220f2402e5U,
  0x813742fb0acd10deU, 0xfb40c723d9f20cf7U, 0x7f01e49360cae902U, 0x1bfb07f716cfec30U,
  0x26cf0ade08da88ecU, 0x76e7f1d250fae605U, 0x120a0e2801ec0742U, 0x2c18f0ecfe1b81f5U,
  0x192d17b3143c060aU, 0xce00587fe2670ae2U, 0x25e2fd11061a3723U, 0xb3ea191c1d5f0a53U,
  0xd6fb0f49c0f3018aU, 0x96cbb4d736cd81f4U, 0xf5072c00f61ffb04U, 0xab8df381bcdde730U,
  0xdf0b0b0ae6d0d1edU, 0x1e3f6f9f2061af9U, 0xd923abf881e700c7U, 0x2a1b0f042df819e0U,
  0xd61aef200038effaU, 0xe7eb7f12601cea22U, 0xf5df3d01dc2ae424U, 0xe685ec01efe00d04U,
  0xfee27fc2e5fdfde0U, 0xfdea1cf70aed2af2U, 0xd177fbefe45f2f8U, 0x15c825d62efd24ebU,
  0xb76fca0915bc27d6U, 0xeb05f7ae810cf0e5U, 0xe54221c71e4508dfU, 0x18eefa5ff809afffU,
  0x7ef7c28d64d9010dU, 0x1ceced0a1fdef920U, 0xcee0ae7f8f081e0U, 0x47120f0afc5cf0f4U,
  0x5503dd81a00105f6U, 0xfe330001e1fa1bdbU, 0x8152c3f108ec03acU, 0x24eac6ffd2c605c4U,
  0xfe07add2f6f1febdU, 0x279a1b39d864f926U, 0xea13eb7fea4b0748U, 0x5007935dfff14005U,
  0xcfd40fdaf81b1617U, 0xdb7ffbb250e32417U, 0x26d6f122dbfaf9U, 0x1bef03c6de3806e7U,
  0x1bf9251f16810a02U, 0x18fef118e90355a9U, 0x1616cf1aefac17f4U, 0xe51716e3a137f53eU,
  0x7ff9010213ea2cf5U, 0x1fa9567f9b5f274cU, 0xfd20de3d3f03f358U, 0x4304c14c0a062cf5U,
  0xd9dc0be532dd1117U, 0xaa9def7f0708db1eU, 0x1dee0ef4cf0452fdU, 0x261c454604811feaU,
  0xe2113f21efee0deeU, 0x10effdd40cfbd8U, 0x6530421f032f0717U, 0x308e41c3810cd6dfU,
  0x11fdda0e28ee001dU, 0x38db0000005cU, 0x2052ffffec9dU, 0x189000038e0U,
  0x1cbbffffef3eU, 0x92e00001503U, 0xfffff402fffff3a2U, 0x47bfffff9f9U,
  0x4d6d00004692U, 0xfffffbfb00000249U, 0x2c20ffffeea0U, 0x3b4300002ccdU,
  0xfffffb9000002478U, 0x29c400000497U, 0x157300000960U, 0xcff00001797U,
  0x416f0000296fU, 0xfe3000019c8U, 0xd23500005690U, 0x32fb000025d6U,
  0x15ea000046dbU, 0x12a3ffffe17cU, 0xfc600003255U, 0x2879000014dcU,
  0x379b00000441U, 0x263800003334U, 0x322000030beU, 0xfffff3f0fffff88cU,
  0x142d00004485U, 0x20c200004074U, 0x6ba2000001e0U, 0x3a17000030f3U,
  0x1bb000002de1U, 0x3c84ffffeb82U, 0x4a0e0000f566U, 0x29be000061a9U,
  0x2a75fffffdb6U, 0x2b610000402dU, 0x4ac0000008afU, 0x160d00000456U,
  0x2b2d000006f3U, 0x1cd00002085U, 0x1a9f00000b51U, 0xfffffcd000002ecdU,
  0xfffff9a1fffff57dU, 0x10710000563dU, 0xffffefadfffff050U, 0x442d0000163eU,
  0x29ba0000405cU, 0x1ff700001b0cU, 0x408b00002f70U, 0x263d00003ba1U,
  0x307ffffffbe8U, 0x75db00002a3eU, 0xf3700002829U, 0x1423fffffd00U,
  0xfffff36a0000336eU, 0x35590000311fU, 0x44e8fffffd99U, 0xfffffe4b0000154eU,
  0x27290000252eU, 0x667800006c9dU, 0x1ef2ffffffedU, 0x277b0000278fU,
  0xfffffd6500001244U, 0x715efffffe31U, 0x1b9f00000b2dU, 0x17e3fffff16eU,
  0x164d00004378U, 0x37e100001e69U, 0xfffff86e00000193U, 0xfffffe790000205dU,
  0x5267000000ccU, 0x4b1fa809e8ed22feU, 0xfd0915f4d7efd35dU, 0x1ae9f709020531e0U,
  0xb99bd1407d70400U, 0xdd0c281394230d08U, 0xfffffb2b09ad5e05U, 0xe9f8fc107f220e40U,
  0xf4070c0300120c16U, 0x202fcdff0efd0d1bU, 0x130a95ff100e1b06U, 0x91b1b09d91404a4U,
  0xde19e6f54a14eed6U, 0x10e140207fafa06U, 0xf8c10f04f5020f0cU, 0xb00500ee16001f17U,
  0x2fe1138320ff90bU, 0xda0ecbaf7f81ffeU, 0x7391dff07e4051aU, 0xe53184f2b04d7525U,
  0xe4eaf27f9494ef94U, 0x31e0e705f62024b2U, 0xf30cdd1df481cb06U, 0x6dcf24be81e81b0aU,
  0xea077a7fe481081cU, 0x45f432335f817f7fU, 0xb8ee06d6096e6c7fU, 0x7d7f8d00eb12b37fU,
  0x10f61342ca156603U, 0x1c34a5f1b97f3f91U, 0xa8e8822411220d78U, 0xf718ef12f222c6e0U,
  0xcba7001de396f5d3U, 0xf3b013a9e0137f7fU, 0xcb9fabdcdd2f1be9U, 0xa7e0fb3f73b3e602U,
  0xf5b065ab1109fcf6U, 0xbb15b30af7f01602U, 0xb140ef0cfffde52U, 0x11ed02f008091de1U,
  0x55a960cfde4f9ffU, 0xc9092c01cb030afdU, 0xfaf6262c0bc61725U, 0xf2fef213dc302336U,
  0xf7fef1faf7091521U, 0x191f11020df70c21U, 0x10c8100f80920fbU, 0x161903e0180764U,
  0xea02e4f2d00b2c9bU, 0x508fd05fff4f307U, 0xf3561f0c18260d0aU, 0xac0100ee01f62117U,
  0xb080e40eb09fa09U, 0x87f202bfffdf8fcU, 0x14506fdfedf04efU, 0x7f1d938afa45eb1fU,
  0xf57f01609dbbf066U, 0x6feea7f812d22c8U, 0xd7f8cf177facf20bU, 0xf9cfffad9a552bbfU,
  0xf05d9846b3bc7f29U, 0x42ff273124a60aceU, 0x817f7f654d7f09e6U, 0xe37870fb85c6df33U,
  0xe808122cd113dcf9U, 0x111a7f9546ff1136U, 0x9475a1092d0c7f16U, 0x7f187ffbe21aedb7U,
  0xb4dd10fecbc9b8fcU, 0x5be711e15d05ec83U, 0xeccad22b7f360fddU, 0xd253a11d14df8213U,
  0x7f7fb5e719fb7f7fU, 0xb47f81ecd9811a7fU, 0x81ac7f667f177f81U, 0x7f7fc0970f7f817fU,
  0x92ee5b7fcd07a87fU, 0x7d8181d7358181b5U, 0x8181c4ffb9441e7fU, 0x81b97f81499fa889U,
  0xf3ff8281816b178dU, 0x816e7f81d27f81eaU, 0x957f607f817f8198U, 0x7f7fb37f28a78116U,
  0x8181817f7f7f1c7dU, 0xa17ff58181477facU, 0x7fdd8181b5818192U, 0x27c881d2817f89d0U,
  0x9e81c5959c7f7f81U, 0xa31dbe7f81c1087fU, 0x95542be17f7ff3e3U, 0xe0279f7fe0420127U,
  0x56bffc5d9617de54U, 0xfcf3ebf66e2f1fe4U, 0x7f18ed13a4abf403U, 0xf5c7f07f82072eb7U,
  0xef3d7f377fbcd628U, 0x32f2322efc8b05d6U, 0x8690e06d237d0ee1U, 0xe4745ff5818bdb33U,
  0x7f141118c413de7fU, 0x13296f8b4a01fa32U, 0xcfecb60c1f04e685U, 0xfd218309e221f07fU,
  0xbc481bed7faea7f3U, 0x60e9197f050ce175U, 0xecd8d061ad2802d5U, 0xd7927f250ade7f04U,
  0xe2627fe624f58a97U, 0x3e1af7ee21fce817U, 0x8150a02d31bee3bU, 0x13e21e08f8fd13cfU,
  0x117f891108ee0d02U, 0xe7121bfdab041211U, 0xf5fae94cfdb60817U, 0xe110019e21edeebU,
  0x11270efe1f0eea11U, 0xb0e150713fa2020U, 0xe10bec0aec0702f8U, 0x7140e0fe6fe15fcU,
  0xa10def04aef6be1dU, 0x10020d2406f7dd0cU, 0xedb5280bfb0c14f7U, 0x811909eb1af4050aU,
  0x25fc1d360e1afb08U, 0xc1d0254ff2160f8U, 0x80410f5ec0c11U, 0xa2c8c017f2c8128U,
  0xbfddf153bd7fbb25U, 0x20b77f03fb3232c4U, 0xddf5e01eebab7ffbU, 0x7fd0f03cafef337fU,
  0xe9dfae78d8b8b522U, 0x107f332d658cf1e8U, 0xd7070ef4e84481ccU, 0x2472aceaeb2ddc5dU,
  0xcdf80c30c91328e8U, 0x1047baf181c30c1fU, 0x85f59704611fa9b8U, 0xe828f661d681ebe8U,
  0xdf063738e693e17fU, 0xbc7f1751ee01d69dU, 0x7fa67f7f00111fe7U, 0x8103e53df87f1515U,
  0xf709837f17dbeeeeU, 0xbf1fe0132202e717U, 0x25080ef9de4cea48U, 0x9e818fb10f243dfU,
  0x1788810e00e818faU, 0xd40b251f8b081017U, 0xee0404761092e9ffU, 0xfe1a011c5a32d0dbU,
  0xae0fbf8f321e00cU, 0xa0ae10306dd191bU, 0x510fed0e150bf121U, 0xf4f9f401e5f40b81U,
  0xa3fe0df436f6177fU, 0x512f7240bf2d70aU, 0xf07f410c0c0d14f9U, 0x8b1811fffbf403ffU,
  0x11041d3cf90bff08U, 0x11e00babfe1489f4U, 0xe09940eecd800f4U, 0xfffffd10ffffde28U,
  0xfffffc18000031fbU, 0x2866ffffffe7U, 0xfffffd3dffffceb5U, 0x4b00000e35U,
  0xef580000001cU, 0xfffffc11ffffdceaU, 0xdd1000000a0U, 0xfffff70600007d0bU,
  0xfffffe65ffffeddbU, 0xfffff4fbffffea10U, 0xffffd45bfffffcebU, 0xffffffc2fffff0ccU,
  0x1b70000362fU, 0x8d87ffffd90dU, 0xffffffd0ffffff19U, 0xffffd68c00001364U,
  0x11b0d000007eeU, 0xffffef20ffffe79aU, 0xffffd05700003b1fU, 0xffffd2ab00001ceeU,
  0xc0000af4bU, 0xfffff42d00001479U, 0x3c34000000dfU, 0xffffff270000011fU,
  0xffffcd1b000057f4U, 0xffffee0c0000448cU, 0x1affffec72U, 0x12f0000062eU,
  0x807ffff952eU, 0xfffff8ecfffffe5eU, 0x3ec5fffff9ffU, 0x333000000dcfU,
  0x54b9000016e3U, 0xffffea0a0000280fU, 0x1fdffffb9ceU, 0xffffff4dfffffb08U,
  0x32f8ffffdd8eU, 0xffffe255ffffbeddU, 0xffffff20ffffe0f5U, 0x2c00004899U,
  0xffffecbefffffcabU, 0x6a6efffffeaeU, 0xffffdc72ffffdf78U, 0xffffe160ffffce4cU,
  0xffffee2fffffe95aU, 0x7143ffffec10U, 0x4756fffff782U, 0xa7dffffff0eU,
  0x2700ffffe7b5U, 0x3740000010eU, 0xfffffa05ffffc34dU, 0x5730fffffe49U,
  0xfffffb530000577aU, 0x1275000048a7U, 0x438d00000144U, 0x1dbffffecefU,
  0xfffff6c9ffffe62fU, 0x268bffffeaebU, 0xffffd7baffffff4fU, 0xffffd90d000035edU,
  0x4fffffdac8U, 0xfffffe6dffffbc0aU, 0xffffffa100002860U, 0xfffffe5effffe70aU,
  0xa7fffffde9U, 0xfffffd8cfffff0e7U, 0x3ab1ffffff67U, 0x130ffffffdbU,
  0xffffe2a8fffff791U, 0xffffe6e0ffffff8fU, 0xfffffe4effffbc36U, 0x4826fbec05ed0c22U,
  0xff20f1080813f9f2U, 0xea2b26f0f106fe18U, 0x2610eafff0150a1aU, 0x3e6f5e7ffe90723U,
  0x5161d3402ccfa36U, 0xe5d2b21b031b490fU, 0x1014e9f9fa0831ecU, 0x70812d0f855df2aU,
  0xfcfc06f3eab81330U, 0xe3f71ff8f3200004U, 0x1ce82702eb0a0cf6U, 0x5ebebe705f7eff8U,
  0x9237fe706e825e1U, 0xeb01d01705d11714U, 0xfd0dec0de910120bU, 0x2617f2e7fef50a09U,
  0xe6da0e00f00003ebU, 0xeedff4f9640f4ffaU, 0xedd2fdf7ff0843U, 0x70a40fff5e7fbd7U,
  0xe5fd221cdce847f9U, 0xc9420410f6d8db4fU, 0xe513f423d9f400ffU, 0xc07fbfffeef111dU,
  0xf305f008fe115364U, 0x66eefdff1d69d8eaU, 0xe509ee0efa0a0c16U, 0xf2e1e7eb414df8d6U,
  0xf0f6f1c5ef1d0eebU, 0x400ea30f7beecf7U, 0xc6def307efd62d3aU, 0xf57f08fcff034710U,
  0x1be86009f807aef8U, 0xe7ffe1f11656f31dU, 0xefec137bea14f4e7U, 0xd6ab180417f8fbf9U,
  0x1222f3f37f1d14bdU, 0xe53a371c133219e7U, 0x2fe1ec46fbebebf4U, 0x161e0416232e0bfdU,
  0x24f941c8f35ff832U, 0xfbede4d4050ab11eU, 0xe72def0f11e7c20fU, 0x38feecf5fdc51100U,
  0xea3ae95ddd2ec83fU, 0x5e5acd8de0f0e0aU, 0xe5f830cf0d1ef8fcU, 0x97eb04eb8f0626feU,
  0x8feda7eafd2133e5U, 0x13f1f603f4f8edf0U, 0xf5d408fcf9f12c16U, 0xfdf4f9f7d60df5feU,
  0x22250805c622e2ccU, 0x8e3020ef42c21e8U, 0xddff01826e40401U, 0xdd5ea04eeead2fcU,
  0xf308071f0602d1eaU, 0xfe100bc4f601d4f7U, 0x1061eeb0632c97fU, 0xc60cfdf74b31e2f3U,
  0x406331355ffe8eaU, 0xdff3612f6f20e1cU, 0xf028000ea0f5dddcU, 0xfe1bf319ff0ced11U,
  0xf71ae0eefc1ecb26U, 0xf5cf1502e31be612U, 0xcf1e325ffbce40fU, 0x3802eaee04222836U,
  0x8ea032813f2f4d2U, 0xf2fb18f7fb0de702U, 0xe413150efde3f71bU, 0x94e326c0ff38c1cfU,
  0x2015fc16b5430c25U, 0x8e9fc09cbd836bdU, 0x2baf272e16db29b0U, 0x1e08fee129171116U,
  0x153f1bc80729f11cU, 0xed12ee4afc00cae0U, 0x12e9d7f429281343U, 0x41f711eb0ef814fbU,
  0xf01fe324ef3f0422U, 0xf50ce50d160cf91bU, 0x40b37efe42fe00dU, 0x4ddf8e00ec2d9f2U,
  0x34de815c272e2f12U, 0xa5fd44010bbefa2cU, 0x5fa0ad30cd827d0U, 0xf9e41fef290cf50dU,
  0xbecff02e9020aeeU, 0xed560227ffe53119U, 0xde18ddfe3c2cf819U, 0x23f8ca0b0e0628e1U,
  0xeb00cd0302401b07U, 0xe801ecf2e4bf3effU, 0xece5d8d3f115f113U, 0x1e04dba9f37fb0fdU,
  0xfa2ae4ec036718c8U, 0x3e9fbe6c91d080bU, 0xfd521d8118e6fdf5U, 0xb16f0f30ff5fd05U,
  0x2d00056409e1eb13U, 0x24eb04aaf1211e08U, 0x1700cf19e825f5e2U, 0x460cb6ff11faf107U,
  0x2830f5e0f7f8214aU, 0x1a0dfdfff2e50253U, 0x151f03e1fbf202f3U, 0xf444cdfcfe22da41U,
  0x1ed1f27011bec19U, 0xf8e7032ce8f36bc6U, 0x270f6616f4d8ef7fU, 0x13f52201013204e1U,
  0x2e24f48b01dd09e9U, 0xf11b19e0f33fdeffU, 0xd2170c17ed01cf1bU, 0xe0f6f0f7fff6e600U,
  0x38210efc09040526U, 0xb814120c04e7e9e9U, 0xf9f14de2cf0efa0fU, 0xf3d8f3e0f5ede909U,
  0xbefff5eed3d707f0U, 0xaf6470ff61df608U, 0x71a1686ecfc0ef9U, 0xe04ebd7eee309f8U,
  0x114effb191d152bU, 0xacb3007051f0deaU, 0xfeff05d930eff81bU, 0x1806eb08ef1d9300U,
  0x15161cf313fc0f15U, 0x727f11cead9f506U, 0xee16fc48fed5fbd5U, 0x2ad40df7e7b80befU,
  0x6082a0f044dfe0aU, 0xc720f620db0fd5e6U, 0x11edc2cf14f10a38U, 0xfd14dcfa0f2d14fcU,
  0xff10f0e5ec18000cU, 0xe7c0facdd207e50eU, 0xccf71a4a0dce21e3U, 0xce00f9f711fc060eU,
  0xfbf80d7f15031eefU, 0x2d11f8f01df7fdefU, 0x1d26f70dfa052a04U, 0xfa4b2ed906e4ed7fU,
  0xf5ff180df514ff92U, 0xfdff03f635f5cce9U, 0x3fcf40000000bd6U, 0x8faebf4d90e0bedU,
  0x24e22004dcf3005fU, 0xd50e25c723bccf2cU, 0x3a2b16dc23daf22cU, 0xef07192308ec1824U,
  0x5c607c1d537fa00U, 0x735ede6ed02f226U, 0x20f9d14f1a06cb0aU, 0x52c1162811f404edU,
  0x21ebcfc2e9241131U, 0x22f165e2f641df0aU, 0x75a18420a3cc64bU, 0xd80510eaf4f908U,
  0xf8eb060d482bf0d8U, 0xf60507bbf4020d0eU, 0xffdb35070ffa00f9U, 0x1006fc17c4110714U,
  0xe4f0de05d206fa14U, 0x40310f826f60f10U, 0xfcfd0205e2f7f5fdU, 0xfafe0b03050a0bf8U,
  0x1cebfb1201ece7fcU, 0xe915e1fb2c7f0e14U, 0xf90903fa0602e9dfU, 0x608f9df0af70104U,
